#include "magic_wand_model_data.h"


// We need to keep the data array aligned on some architectures.

#ifdef __has_attribute

#define HAVE_ATTRIBUTE(x) __has_attribute(x)

#else

#define HAVE_ATTRIBUTE(x) 0

#endif

#if HAVE_ATTRIBUTE(aligned) || (defined(__GNUC__) && !defined(__clang__))

#define DATA_ALIGN_ATTRIBUTE __attribute__((aligned(4)))

#else

#define DATA_ALIGN_ATTRIBUTE

#endif


const unsigned char g_magic_wand_model_data[] DATA_ALIGN_ATTRIBUTE = {



  0x08, 0x00, 0x00, 0x00, 0x54, 0x46, 0x4c, 0x33, 0x62, 0xff, 0xff, 0xff,
  0x03, 0x00, 0x00, 0x00, 0x10, 0x00, 0x00, 0x00, 0x24, 0x00, 0x00, 0x00,
  0x78, 0x00, 0x00, 0x00, 0x24, 0x00, 0x00, 0x00, 0x05, 0x00, 0x00, 0x00,
  0x78, 0x05, 0x00, 0x00, 0xb0, 0x04, 0x00, 0x00, 0xe0, 0x02, 0x00, 0x00,
  0x60, 0x02, 0x00, 0x00, 0x54, 0x01, 0x00, 0x00, 0x01, 0x00, 0x00, 0x00,
  0x78, 0x00, 0x00, 0x00, 0x13, 0x00, 0x00, 0x00, 0x90, 0x2f, 0x00, 0x00,
  0x8c, 0x2f, 0x00, 0x00, 0x98, 0x2e, 0x00, 0x00, 0x28, 0x2e, 0x00, 0x00,
  0xbc, 0x2d, 0x00, 0x00, 0x6c, 0x11, 0x00, 0x00, 0x98, 0x10, 0x00, 0x00,
  0xbc, 0x0e, 0x00, 0x00, 0x60, 0x06, 0x00, 0x00, 0xfc, 0x05, 0x00, 0x00,
  0x78, 0x05, 0x00, 0x00, 0x64, 0x2f, 0x00, 0x00, 0x60, 0x2f, 0x00, 0x00,
  0x5c, 0x2f, 0x00, 0x00, 0x58, 0x2f, 0x00, 0x00, 0x54, 0x2f, 0x00, 0x00,
  0x50, 0x2f, 0x00, 0x00, 0x4c, 0x2f, 0x00, 0x00, 0x48, 0x2f, 0x00, 0x00,
  0x0f, 0x00, 0x00, 0x00, 0x4d, 0x4c, 0x49, 0x52, 0x20, 0x43, 0x6f, 0x6e,
  0x76, 0x65, 0x72, 0x74, 0x65, 0x64, 0x2e, 0x00, 0x00, 0x00, 0x0e, 0x00,
  0x18, 0x00, 0x04, 0x00, 0x08, 0x00, 0x0c, 0x00, 0x10, 0x00, 0x14, 0x00,
  0x0e, 0x00, 0x00, 0x00, 0x14, 0x00, 0x00, 0x00, 0x5c, 0x00, 0x00, 0x00,
  0x60, 0x00, 0x00, 0x00, 0x64, 0x00, 0x00, 0x00, 0x84, 0x00, 0x00, 0x00,
  0x12, 0x00, 0x00, 0x00, 0xc0, 0x2e, 0x00, 0x00, 0x5c, 0x2e, 0x00, 0x00,
  0xb4, 0x2d, 0x00, 0x00, 0x58, 0x2d, 0x00, 0x00, 0xf0, 0x2c, 0x00, 0x00,
  0x9c, 0x10, 0x00, 0x00, 0xc0, 0x0f, 0x00, 0x00, 0xe4, 0x0d, 0x00, 0x00,
  0xa0, 0x05, 0x00, 0x00, 0x3c, 0x05, 0x00, 0x00, 0xb0, 0x04, 0x00, 0x00,
  0xe8, 0x03, 0x00, 0x00, 0x38, 0x03, 0x00, 0x00, 0xa4, 0x02, 0x00, 0x00,
  0x10, 0x02, 0x00, 0x00, 0x90, 0x01, 0x00, 0x00, 0xfc, 0x00, 0x00, 0x00,
  0x80, 0x00, 0x00, 0x00, 0x01, 0x00, 0x00, 0x00, 0x00, 0x00, 0x00, 0x00,
  0x01, 0x00, 0x00, 0x00, 0x11, 0x00, 0x00, 0x00, 0x08, 0x00, 0x00, 0x00,
  0x1c, 0x04, 0x00, 0x00, 0x58, 0x03, 0x00, 0x00, 0xc8, 0x02, 0x00, 0x00,
  0x24, 0x02, 0x00, 0x00, 0xac, 0x01, 0x00, 0x00, 0x10, 0x01, 0x00, 0x00,
  0x94, 0x00, 0x00, 0x00, 0x10, 0x00, 0x00, 0x00, 0x04, 0x00, 0x00, 0x00,
  0x6d, 0x61, 0x69, 0x6e, 0x00, 0x00, 0x00, 0x00, 0x8e, 0xff, 0xff, 0xff,
  0x00, 0x00, 0x00, 0x09, 0x04, 0x00, 0x00, 0x00, 0x1c, 0x00, 0x00, 0x00,
  0x10, 0x00, 0x00, 0x00, 0x04, 0x00, 0x00, 0x00, 0x92, 0xd2, 0xff, 0xff,
  0x00, 0x00, 0x80, 0x3f, 0x01, 0x00, 0x00, 0x00, 0x11, 0x00, 0x00, 0x00,
  0x01, 0x00, 0x00, 0x00, 0x10, 0x00, 0x00, 0x00, 0xf6, 0xfb, 0xff, 0xff,
  0x00, 0x00, 0x00, 0x19, 0x01, 0x00, 0x00, 0x00, 0x12, 0xd2, 0xff, 0xff,
  0x10, 0x00, 0x00, 0x00, 0x12, 0x00, 0x00, 0x00, 0x14, 0x00, 0x00, 0x00,
  0x20, 0x00, 0x00, 0x00, 0x02, 0x00, 0x00, 0x00, 0x01, 0x00, 0x00, 0x00,
  0x02, 0x00, 0x00, 0x00, 0x08, 0x00, 0x00, 0x00, 0x49, 0x64, 0x65, 0x6e,
  0x74, 0x69, 0x74, 0x79, 0x00, 0x00, 0x00, 0x00, 0x4c, 0xd2, 0xff, 0xff,
  0x00, 0x00, 0x0e, 0x00, 0x18, 0x00, 0x08, 0x00, 0x0c, 0x00, 0x10, 0x00,
  0x07, 0x00, 0x14, 0x00, 0x0e, 0x00, 0x00, 0x00, 0x00, 0x00, 0x00, 0x08,
  0x03, 0x00, 0x00, 0x00, 0x18, 0x00, 0x00, 0x00, 0x0c, 0x00, 0x00, 0x00,
  0x04, 0x00, 0x00, 0x00, 0x20, 0xd2, 0xff, 0xff, 0x01, 0x00, 0x00, 0x00,
  0x10, 0x00, 0x00, 0x00, 0x03, 0x00, 0x00, 0x00, 0x0f, 0x00, 0x00, 0x00,
  0x05, 0x00, 0x00, 0x00, 0x02, 0x00, 0x00, 0x00, 0x8a, 0xd2, 0xff, 0xff,
  0x10, 0x00, 0x00, 0x00, 0x11, 0x00, 0x00, 0x00, 0x14, 0x00, 0x00, 0x00,
  0x30, 0x00, 0x00, 0x00, 0x02, 0x00, 0x00, 0x00, 0x01, 0x00, 0x00, 0x00,
  0x02, 0x00, 0x00, 0x00, 0x1a, 0x00, 0x00, 0x00, 0x73, 0x65, 0x71, 0x75,
  0x65, 0x6e, 0x74, 0x69, 0x61, 0x6c, 0x2f, 0x64, 0x65, 0x6e, 0x73, 0x65,
  0x5f, 0x31, 0x2f, 0x42, 0x69, 0x61, 0x73, 0x41, 0x64, 0x64, 0x00, 0x00,
  0x7c, 0xd2, 0xff, 0xff, 0xd6, 0xfd, 0xff, 0xff, 0x00, 0x00, 0x00, 0x08,
  0x03, 0x00, 0x00, 0x00, 0x24, 0x00, 0x00, 0x00, 0x18, 0x00, 0x00, 0x00,
  0x0c, 0x00, 0x00, 0x00, 0x00, 0x00, 0x06, 0x00, 0x08, 0x00, 0x07, 0x00,
  0x06, 0x00, 0x00, 0x00, 0x00, 0x00, 0x00, 0x01, 0x01, 0x00, 0x00, 0x00,
  0x0f, 0x00, 0x00, 0x00, 0x03, 0x00, 0x00, 0x00, 0x0e, 0x00, 0x00, 0x00,
  0x04, 0x00, 0x00, 0x00, 0x01, 0x00, 0x00, 0x00, 0xfe, 0xfc, 0xff, 0xff,
  0x00, 0x00, 0x00, 0x09, 0x01, 0x00, 0x00, 0x00, 0x1a, 0xd3, 0xff, 0xff,
  0x10, 0x00, 0x00, 0x00, 0x10, 0x00, 0x00, 0x00, 0x14, 0x00, 0x00, 0x00,
  0x2c, 0x00, 0x00, 0x00, 0x02, 0x00, 0x00, 0x00, 0x01, 0x00, 0x00, 0x00,
  0x10, 0x00, 0x00, 0x00, 0x15, 0x00, 0x00, 0x00, 0x73, 0x65, 0x71, 0x75,
  0x65, 0x6e, 0x74, 0x69, 0x61, 0x6c, 0x2f, 0x64, 0x65, 0x6e, 0x73, 0x65,
  0x2f, 0x52, 0x65, 0x6c, 0x75, 0x00, 0x00, 0x00, 0x60, 0xd3, 0xff, 0xff,
  0x00, 0x00, 0x0a, 0x00, 0x10, 0x00, 0x04, 0x00, 0x08, 0x00, 0x0c, 0x00,
  0x0a, 0x00, 0x00, 0x00, 0x02, 0x00, 0x00, 0x00, 0x10, 0x00, 0x00, 0x00,
  0x04, 0x00, 0x00, 0x00, 0x01, 0x00, 0x00, 0x00, 0x0e, 0x00, 0x00, 0x00,
  0x02, 0x00, 0x00, 0x00, 0x0d, 0x00, 0x00, 0x00, 0x03, 0x00, 0x00, 0x00,
  0x7a, 0xfd, 0xff, 0xff, 0x00, 0x00, 0x00, 0x16, 0x01, 0x00, 0x00, 0x00,
  0x96, 0xd3, 0xff, 0xff, 0x10, 0x00, 0x00, 0x00, 0x0f, 0x00, 0x00, 0x00,
  0x14, 0x00, 0x00, 0x00, 0x30, 0x00, 0x00, 0x00, 0x02, 0x00, 0x00, 0x00,
  0x01, 0x00, 0x00, 0x00, 0x70, 0x00, 0x00, 0x00, 0x1a, 0x00, 0x00, 0x00,
  0x73, 0x65, 0x71, 0x75, 0x65, 0x6e, 0x74, 0x69, 0x61, 0x6c, 0x2f, 0x66,
  0x6c, 0x61, 0x74, 0x74, 0x65, 0x6e, 0x2f, 0x52, 0x65, 0x73, 0x68, 0x61,
  0x70, 0x65, 0x00, 0x00, 0x88, 0xd3, 0xff, 0xff, 0xe2, 0xfe, 0xff, 0xff,
  0x00, 0x00, 0x00, 0x05, 0x01, 0x00, 0x00, 0x00, 0x38, 0x00, 0x00, 0x00,
  0x2c, 0x00, 0x00, 0x00, 0x14, 0x00, 0x00, 0x00, 0x00, 0x00, 0x0e, 0x00,
  0x14, 0x00, 0x00, 0x00, 0x10, 0x00, 0x0c, 0x00, 0x08, 0x00, 0x04, 0x00,
  0x0e, 0x00, 0x00, 0x00, 0x03, 0x00, 0x00, 0x00, 0x01, 0x00, 0x00, 0x00,
  0x03, 0x00, 0x00, 0x00, 0x01, 0x00, 0x00, 0x00, 0x01, 0x00, 0x00, 0x00,
  0x0d, 0x00, 0x00, 0x00, 0x01, 0x00, 0x00, 0x00, 0x0c, 0x00, 0x00, 0x00,
  0x26, 0xd4, 0xff, 0xff, 0x10, 0x00, 0x00, 0x00, 0x0e, 0x00, 0x00, 0x00,
  0x1c, 0x00, 0x00, 0x00, 0x40, 0x00, 0x00, 0x00, 0x04, 0x00, 0x00, 0x00,
  0x01, 0x00, 0x00, 0x00, 0x07, 0x00, 0x00, 0x00, 0x01, 0x00, 0x00, 0x00,
  0x10, 0x00, 0x00, 0x00, 0x22, 0x00, 0x00, 0x00, 0x73, 0x65, 0x71, 0x75,
  0x65, 0x6e, 0x74, 0x69, 0x61, 0x6c, 0x2f, 0x6d, 0x61, 0x78, 0x5f, 0x70,
  0x6f, 0x6f, 0x6c, 0x69, 0x6e, 0x67, 0x32, 0x64, 0x5f, 0x31, 0x2f, 0x4d,
  0x61, 0x78, 0x50, 0x6f, 0x6f, 0x6c, 0x00, 0x00, 0x28, 0xd4, 0xff, 0xff,
  0xc2, 0xfe, 0xff, 0xff, 0x00, 0x00, 0x00, 0x01, 0x24, 0x00, 0x00, 0x00,
  0x18, 0x00, 0x00, 0x00, 0x04, 0x00, 0x00, 0x00, 0xb4, 0xfe, 0xff, 0xff,
  0x01, 0x00, 0x00, 0x00, 0x01, 0x00, 0x00, 0x00, 0x00, 0x00, 0x00, 0x01,
  0x01, 0x00, 0x00, 0x00, 0x0c, 0x00, 0x00, 0x00, 0x03, 0x00, 0x00, 0x00,
  0x0b, 0x00, 0x00, 0x00, 0x07, 0x00, 0x00, 0x00, 0x09, 0x00, 0x00, 0x00,
  0xb6, 0xd4, 0xff, 0xff, 0x10, 0x00, 0x00, 0x00, 0x0d, 0x00, 0x00, 0x00,
  0x1c, 0x00, 0x00, 0x00, 0x2c, 0x00, 0x00, 0x00, 0x04, 0x00, 0x00, 0x00,
  0x01, 0x00, 0x00, 0x00, 0x15, 0x00, 0x00, 0x00, 0x01, 0x00, 0x00, 0x00,
  0x10, 0x00, 0x00, 0x00, 0x0c, 0x00, 0x00, 0x00, 0x74, 0x66, 0x6c, 0x2e,
  0x63, 0x6f, 0x6e, 0x76, 0x5f, 0x32, 0x64, 0x31, 0x00, 0x00, 0x00, 0x00,
  0xfc, 0xd4, 0xff, 0xff, 0x00, 0x00, 0x0e, 0x00, 0x1a, 0x00, 0x08, 0x00,
  0x0c, 0x00, 0x10, 0x00, 0x07, 0x00, 0x14, 0x00, 0x0e, 0x00, 0x00, 0x00,
  0x00, 0x00, 0x00, 0x05, 0x01, 0x00, 0x00, 0x00, 0x3c, 0x00, 0x00, 0x00,
  0x30, 0x00, 0x00, 0x00, 0x14, 0x00, 0x00, 0x00, 0x00, 0x00, 0x0e, 0x00,
  0x18, 0x00, 0x17, 0x00, 0x10, 0x00, 0x0c, 0x00, 0x08, 0x00, 0x04, 0x00,
  0x0e, 0x00, 0x00, 0x00, 0x03, 0x00, 0x00, 0x00, 0x03, 0x00, 0x00, 0x00,
  0x03, 0x00, 0x00, 0x00, 0x03, 0x00, 0x00, 0x00, 0x00, 0x00, 0x00, 0x01,
  0x01, 0x00, 0x00, 0x00, 0x0b, 0x00, 0x00, 0x00, 0x01, 0x00, 0x00, 0x00,
  0x0a, 0x00, 0x00, 0x00, 0x46, 0xff, 0xff, 0xff, 0x00, 0x00, 0x00, 0x11,
  0x01, 0x00, 0x00, 0x00, 0x62, 0xd5, 0xff, 0xff, 0x10, 0x00, 0x00, 0x00,
  0x0c, 0x00, 0x00, 0x00, 0x1c, 0x00, 0x00, 0x00, 0x40, 0x00, 0x00, 0x00,
  0x04, 0x00, 0x00, 0x00, 0x01, 0x00, 0x00, 0x00, 0x15, 0x00, 0x00, 0x00,
  0x01, 0x00, 0x00, 0x00, 0x08, 0x00, 0x00, 0x00, 0x20, 0x00, 0x00, 0x00,
  0x73, 0x65, 0x71, 0x75, 0x65, 0x6e, 0x74, 0x69, 0x61, 0x6c, 0x2f, 0x6d,
  0x61, 0x78, 0x5f, 0x70, 0x6f, 0x6f, 0x6c, 0x69, 0x6e, 0x67, 0x32, 0x64,
  0x2f, 0x4d, 0x61, 0x78, 0x50, 0x6f, 0x6f, 0x6c, 0x00, 0x00, 0x00, 0x00,
  0xbc, 0xd5, 0xff, 0xff, 0x00, 0x00, 0x0e, 0x00, 0x14, 0x00, 0x00, 0x00,
  0x08, 0x00, 0x0c, 0x00, 0x07, 0x00, 0x10, 0x00, 0x0e, 0x00, 0x00, 0x00,
  0x00, 0x00, 0x00, 0x01, 0x30, 0x00, 0x00, 0x00, 0x24, 0x00, 0x00, 0x00,
  0x10, 0x00, 0x00, 0x00, 0x0c, 0x00, 0x10, 0x00, 0x00, 0x00, 0x04, 0x00,
  0x08, 0x00, 0x0f, 0x00, 0x0c, 0x00, 0x00, 0x00, 0x01, 0x00, 0x00, 0x00,
  0x01, 0x00, 0x00, 0x00, 0x00, 0x00, 0x00, 0x01, 0x01, 0x00, 0x00, 0x00,
  0x0a, 0x00, 0x00, 0x00, 0x03, 0x00, 0x00, 0x00, 0x00, 0x00, 0x00, 0x00,
  0x06, 0x00, 0x00, 0x00, 0x08, 0x00, 0x00, 0x00, 0x00, 0x00, 0x0a, 0x00,
  0x0c, 0x00, 0x07, 0x00, 0x00, 0x00, 0x08, 0x00, 0x0a, 0x00, 0x00, 0x00,
  0x00, 0x00, 0x00, 0x03, 0x01, 0x00, 0x00, 0x00, 0x26, 0xd6, 0xff, 0xff,
  0x10, 0x00, 0x00, 0x00, 0x0b, 0x00, 0x00, 0x00, 0x1c, 0x00, 0x00, 0x00,
  0x28, 0x00, 0x00, 0x00, 0x04, 0x00, 0x00, 0x00, 0x01, 0x00, 0x00, 0x00,
  0x40, 0x00, 0x00, 0x00, 0x03, 0x00, 0x00, 0x00, 0x08, 0x00, 0x00, 0x00,
  0x0b, 0x00, 0x00, 0x00, 0x74, 0x66, 0x6c, 0x2e, 0x63, 0x6f, 0x6e, 0x76,
  0x5f, 0x32, 0x64, 0x00, 0x10, 0xd6, 0xff, 0xff, 0x06, 0xd7, 0xff, 0xff,
  0x04, 0x00, 0x00, 0x00, 0x40, 0x00, 0x00, 0x00, 0x46, 0x26, 0xe8, 0xbe,
  0x37, 0x44, 0xb1, 0xba, 0x69, 0x32, 0x6c, 0xbf, 0x05, 0xf9, 0xa7, 0x40,
  0xd1, 0x54, 0x3d, 0x3e, 0x70, 0x72, 0x4f, 0xbf, 0xf6, 0x6a, 0x5d, 0x40,
  0x41, 0xc7, 0x11, 0xbf, 0x34, 0x49, 0x89, 0xbe, 0x8c, 0x40, 0x0e, 0x3d,
  0xa2, 0xc8, 0x12, 0xbf, 0x88, 0xb3, 0xea, 0xbe, 0x3b, 0xf3, 0x57, 0xbd,
  0x8b, 0x8c, 0xdb, 0xbe, 0xeb, 0x6d, 0x51, 0xbe, 0x42, 0x40, 0x44, 0xbe,
  0xae, 0xd6, 0xff, 0xff, 0x10, 0x00, 0x00, 0x00, 0x0a, 0x00, 0x00, 0x00,
  0x10, 0x00, 0x00, 0x00, 0x20, 0x00, 0x00, 0x00, 0x01, 0x00, 0x00, 0x00,
  0x10, 0x00, 0x00, 0x00, 0x0d, 0x00, 0x00, 0x00, 0x73, 0x74, 0x64, 0x2e,
  0x63, 0x6f, 0x6e, 0x73, 0x74, 0x61, 0x6e, 0x74, 0x31, 0x00, 0x00, 0x00,
  0x90, 0xd6, 0xff, 0xff, 0x86, 0xd7, 0xff, 0xff, 0x04, 0x00, 0x00, 0x00,
  0x20, 0x00, 0x00, 0x00, 0x5d, 0xbf, 0xa2, 0xbf, 0xdd, 0x0c, 0x84, 0xbe,
  0x2c, 0xeb, 0xe5, 0xbf, 0xef, 0xa8, 0x80, 0xbf, 0xb0, 0x01, 0x02, 0xc0,
  0xf8, 0x48, 0xb5, 0xbf, 0xa1, 0xc6, 0xe3, 0xbe, 0xdc, 0x1e, 0xa1, 0xbf,
  0x0e, 0xd7, 0xff, 0xff, 0x10, 0x00, 0x00, 0x00, 0x09, 0x00, 0x00, 0x00,
  0x10, 0x00, 0x00, 0x00, 0x20, 0x00, 0x00, 0x00, 0x01, 0x00, 0x00, 0x00,
  0x08, 0x00, 0x00, 0x00, 0x0c, 0x00, 0x00, 0x00, 0x73, 0x74, 0x64, 0x2e,
  0x63, 0x6f, 0x6e, 0x73, 0x74, 0x61, 0x6e, 0x74, 0x00, 0x00, 0x00, 0x00,
  0xf0, 0xd6, 0xff, 0xff, 0xe6, 0xd7, 0xff, 0xff, 0x04, 0x00, 0x00, 0x00,
  0x00, 0x08, 0x00, 0x00, 0x8a, 0xf2, 0xf4, 0xbe, 0xc9, 0x56, 0x9d, 0xbe,
  0x78, 0xfe, 0x58, 0xbd, 0x31, 0x60, 0xb1, 0xbd, 0x82, 0xb1, 0xce, 0xbe,
  0xf0, 0x2a, 0x97, 0x3d, 0xad, 0xf2, 0x5e, 0xbe, 0xcc, 0xf2, 0xca, 0x3d,
  0x9a, 0x7d, 0xd5, 0xbd, 0x7a, 0x43, 0xbd, 0xbd, 0x69, 0x82, 0x8c, 0x3e,
  0xb8, 0x97, 0xb6, 0xbc, 0x49, 0xf4, 0x46, 0x3e, 0xb8, 0x8b, 0x14, 0x3f,
  0x98, 0x35, 0x1f, 0xbe, 0x2b, 0x4d, 0x11, 0xbe, 0xe4, 0xd8, 0xa6, 0xbc,
  0x84, 0x90, 0xe6, 0xbd, 0x7d, 0xe6, 0xe3, 0xbe, 0x78, 0xb0, 0x97, 0xbd,
  0xf4, 0xd9, 0x8b, 0xbc, 0x50, 0xd2, 0xf0, 0xbe, 0xb9, 0xf8, 0xe3, 0xbc,
  0x64, 0x2b, 0x58, 0x3c, 0x2d, 0xe7, 0x05, 0xbe, 0x84, 0x99, 0xe6, 0xbd,
  0x06, 0xc5, 0x5b, 0xbe, 0x42, 0x65, 0x26, 0xbe, 0x56, 0x02, 0x25, 0xbe,
  0x5a, 0x85, 0x13, 0xbe, 0x57, 0x8b, 0x37, 0xbd, 0x3b, 0xb6, 0x9d, 0xbe,
  0x0b, 0xdd, 0xb7, 0xbc, 0xf4, 0xf8, 0x59, 0xbe, 0x57, 0xde, 0x5e, 0xbe,
  0x66, 0xea, 0x78, 0x3c, 0xb7, 0xc9, 0x6b, 0xbe, 0xfd, 0x99, 0x0a, 0x3d,
  0x14, 0x80, 0x46, 0x3d, 0xf4, 0xe6, 0x74, 0x3e, 0x4e, 0x6f, 0x48, 0xbe,
  0xc3, 0x31, 0x9a, 0xbe, 0x34, 0x55, 0x0c, 0xbd, 0x9c, 0xb3, 0x93, 0xbe,
  0x71, 0x0a, 0x82, 0x3d, 0x55, 0xd4, 0x1f, 0xbe, 0x4d, 0x15, 0xae, 0xbd,
  0xdb, 0xb5, 0x21, 0x3e, 0xe2, 0x16, 0x15, 0xbe, 0x88, 0x2f, 0x02, 0xbe,
  0xfa, 0x6c, 0x97, 0xbe, 0x19, 0xc3, 0xd9, 0xbd, 0xda, 0xed, 0xef, 0x3c,
  0xb6, 0xd8, 0x06, 0xbd, 0xb0, 0xa9, 0x67, 0x3d, 0x30, 0x21, 0x1e, 0xbe,
  0xc0, 0xab, 0x56, 0x3d, 0x71, 0x60, 0x7d, 0xbd, 0x61, 0xa0, 0x1d, 0x3d,
  0x75, 0xc4, 0x6f, 0xbc, 0x56, 0xcc, 0xe7, 0xbd, 0xab, 0x8f, 0x3f, 0xbe,
  0x3b, 0x67, 0xc8, 0x3b, 0xf3, 0xa2, 0xc2, 0x3c, 0x34, 0xac, 0x0d, 0xbf,
  0x47, 0x6d, 0x73, 0xbe, 0x3e, 0xb0, 0xf1, 0xbe, 0xe0, 0x85, 0xca, 0xbe,
  0xd6, 0x3f, 0x2c, 0xbf, 0x5b, 0x00, 0xa4, 0xbe, 0xba, 0x6c, 0x67, 0xbe,
  0x06, 0x98, 0x90, 0xbe, 0x07, 0x66, 0x33, 0xbe, 0x9e, 0xf5, 0x8e, 0xbe,
  0xe1, 0xe6, 0xbf, 0x3e, 0x93, 0x18, 0xcd, 0x3d, 0xa1, 0x90, 0x11, 0xbe,
  0x2e, 0x1b, 0xc7, 0x3e, 0xab, 0x02, 0x7e, 0xbe, 0x79, 0x31, 0x14, 0xbd,
  0x88, 0xe4, 0xa9, 0x3d, 0xe0, 0xf7, 0x03, 0xbe, 0xa4, 0x48, 0x37, 0x3d,
  0xb4, 0x8a, 0xaa, 0x3d, 0x09, 0x8c, 0x94, 0x3e, 0x25, 0xd0, 0x02, 0x3e,
  0x05, 0xe1, 0xd1, 0xbd, 0x42, 0x96, 0xe8, 0x3c, 0xad, 0x0a, 0x50, 0xbe,
  0x85, 0x07, 0x36, 0xbe, 0x92, 0x61, 0xc4, 0xbe, 0xd5, 0x4e, 0x96, 0xbe,
  0xf5, 0x87, 0xfb, 0xbe, 0xb8, 0x8b, 0x6d, 0xbe, 0x69, 0x3e, 0xe3, 0x3c,
  0xda, 0xf1, 0x53, 0xbd, 0xa8, 0xad, 0x91, 0xbc, 0xc0, 0xdb, 0x86, 0x3d,
  0xf7, 0x25, 0xe8, 0xbd, 0x53, 0x36, 0x34, 0xbe, 0x1b, 0x85, 0x94, 0x3d,
  0x71, 0xd7, 0x89, 0x3d, 0x34, 0xbf, 0x7d, 0xbe, 0x86, 0xe8, 0x50, 0xbc,
  0xfa, 0x81, 0x9f, 0xbd, 0x04, 0xeb, 0x11, 0xbc, 0x9f, 0xa9, 0xb6, 0xbd,
  0x0e, 0x0d, 0xce, 0xbd, 0xd7, 0x40, 0x20, 0xbe, 0xc5, 0x49, 0xb7, 0xbd,
  0xb8, 0x48, 0x8b, 0xbd, 0xae, 0xf7, 0x54, 0xbd, 0x93, 0x13, 0xf0, 0xbd,
  0xf3, 0xeb, 0x3d, 0xbc, 0x66, 0x77, 0x1b, 0xbd, 0x7a, 0xd8, 0x1a, 0xbe,
  0xdc, 0x0d, 0x92, 0xbe, 0x70, 0xea, 0x71, 0xbd, 0x5d, 0x29, 0x1c, 0xbd,
  0xd9, 0x13, 0xe8, 0x3c, 0xa1, 0xc5, 0x16, 0xbe, 0xec, 0x64, 0x10, 0xbe,
  0x09, 0xe7, 0x03, 0xbe, 0xba, 0x76, 0x49, 0x3e, 0x5a, 0xb2, 0xca, 0x3b,
  0x0c, 0xbc, 0x9c, 0x3c, 0xa3, 0x9b, 0x3e, 0xbe, 0xc4, 0xdf, 0x24, 0xbe,
  0x50, 0x84, 0x63, 0x3c, 0x0c, 0xe4, 0x83, 0xbd, 0xcf, 0x94, 0x7e, 0x3d,
  0x0b, 0xc7, 0xa8, 0xbd, 0x43, 0xe9, 0x36, 0xbe, 0xf1, 0x0c, 0x6d, 0xbe,
  0x17, 0xdd, 0xa1, 0x3d, 0x0b, 0x84, 0x2c, 0x3d, 0xe7, 0x7c, 0x04, 0xbf,
  0xef, 0xa2, 0x01, 0xbe, 0x17, 0x80, 0x68, 0xbe, 0x99, 0x45, 0xd7, 0xbd,
  0x86, 0x29, 0x0b, 0xbf, 0xee, 0x49, 0x6f, 0xbe, 0x18, 0x4b, 0x1e, 0xbd,
  0x90, 0x9a, 0xb7, 0xbd, 0x1c, 0xc8, 0x22, 0xbe, 0x67, 0x57, 0x83, 0x3d,
  0xd2, 0xb4, 0x0e, 0xbe, 0x49, 0x5b, 0x55, 0xbd, 0x76, 0xda, 0x35, 0x3d,
  0x0d, 0xda, 0xfc, 0x3e, 0x71, 0x7e, 0x66, 0x3d, 0x41, 0x0d, 0x27, 0xbe,
  0x8c, 0x6d, 0x71, 0xbd, 0xb2, 0x8b, 0x7e, 0xbd, 0x8f, 0xbd, 0x75, 0x3e,
  0x08, 0x39, 0x41, 0xba, 0x72, 0x53, 0x05, 0x3f, 0x90, 0xa7, 0xb8, 0xbe,
  0xf7, 0x3c, 0x79, 0xbd, 0x2e, 0xe5, 0xd1, 0xbd, 0x55, 0x33, 0x4c, 0x3c,
  0x66, 0x27, 0x60, 0x3e, 0xa4, 0xf7, 0x09, 0x3e, 0xa9, 0x67, 0x07, 0xbe,
  0x3e, 0x5a, 0x38, 0x3d, 0xa7, 0xf9, 0x02, 0xbf, 0xa5, 0xe7, 0x0d, 0xbe,
  0x68, 0x72, 0x9f, 0x3d, 0xb0, 0x43, 0x75, 0xbe, 0xe1, 0x7e, 0xd8, 0xbd,
  0x80, 0x11, 0x53, 0xbd, 0x05, 0x14, 0xc0, 0xbe, 0xd3, 0x1e, 0x0d, 0xbd,
  0xbe, 0x20, 0xe7, 0xbd, 0xec, 0xd0, 0xd6, 0xbd, 0xad, 0xaf, 0x02, 0x3e,
  0xa5, 0x42, 0x0d, 0x3e, 0xcf, 0xc4, 0x40, 0xbd, 0x68, 0x19, 0xef, 0xbd,
  0x36, 0x97, 0x6e, 0xbe, 0x81, 0x91, 0x09, 0x3e, 0x4a, 0x9a, 0x00, 0xbe,
  0xa0, 0xdd, 0xa8, 0xbe, 0x99, 0x98, 0x5e, 0xbe, 0x2e, 0x3f, 0x83, 0xbd,
  0x08, 0xc9, 0xdd, 0xbd, 0xdd, 0x25, 0x3b, 0xbd, 0x81, 0xc0, 0x5e, 0xbe,
  0x03, 0x8b, 0x22, 0x3e, 0xea, 0x4f, 0xa6, 0xbe, 0xba, 0xe4, 0x80, 0xbe,
  0x4d, 0x8e, 0x65, 0x3e, 0x58, 0xdb, 0x00, 0x3d, 0x52, 0x1c, 0x10, 0xbd,
  0x8e, 0x90, 0xc3, 0xbd, 0x8e, 0xde, 0x5a, 0xbe, 0x3e, 0x7d, 0x92, 0xbe,
  0x69, 0x93, 0x6b, 0xbe, 0x64, 0x1c, 0xf2, 0xbe, 0xe4, 0xec, 0x26, 0xbe,
  0xef, 0x68, 0xdf, 0xbd, 0x3e, 0xdf, 0x87, 0x3e, 0xfe, 0x13, 0xa5, 0xbd,
  0x38, 0x5d, 0xc0, 0xbd, 0x14, 0xe2, 0x9b, 0xbd, 0x4a, 0x09, 0x12, 0xbe,
  0x6d, 0x78, 0x82, 0x3d, 0x28, 0x28, 0x4e, 0x3e, 0x1f, 0x7e, 0x4a, 0x3d,
  0xc1, 0xb1, 0xac, 0xbe, 0xb1, 0x64, 0x0d, 0xbd, 0x04, 0x88, 0xb1, 0xbc,
  0xf5, 0xc8, 0x87, 0x3d, 0x19, 0xd9, 0x02, 0x3e, 0xac, 0x6f, 0x57, 0x3e,
  0x72, 0x32, 0x4f, 0xbe, 0xfb, 0xca, 0xcd, 0xbe, 0x9d, 0xc5, 0x32, 0xbe,
  0x81, 0x2e, 0x64, 0xbd, 0xfe, 0x6b, 0x3a, 0x3e, 0x6c, 0x87, 0x69, 0xbe,
  0xbc, 0x6c, 0x8a, 0xbd, 0x88, 0xd3, 0x52, 0xbe, 0xda, 0x54, 0xaa, 0xbd,
  0x3c, 0xc5, 0xb0, 0xbc, 0xe2, 0xfd, 0xd7, 0xbc, 0xe0, 0x44, 0x81, 0x3e,
  0xe3, 0x0b, 0xbd, 0x3e, 0x49, 0x7f, 0x25, 0x3e, 0x6c, 0xb1, 0xd3, 0xbe,
  0xfd, 0x24, 0x9a, 0xbd, 0xae, 0x33, 0xf8, 0xbc, 0x59, 0x04, 0xcb, 0x3a,
  0xbc, 0x84, 0x92, 0xbd, 0x04, 0xda, 0xc4, 0xbe, 0x11, 0x94, 0x85, 0xbe,
  0xa4, 0x46, 0xf5, 0x3d, 0x27, 0xba, 0x07, 0x3e, 0xc5, 0xce, 0xb3, 0xbc,
  0x37, 0x0c, 0x36, 0xbd, 0x4a, 0x1d, 0x83, 0x3d, 0x9f, 0xfa, 0xda, 0xbd,
  0x83, 0xb4, 0x67, 0xbe, 0x99, 0xb9, 0xb3, 0xbd, 0xe4, 0x04, 0x54, 0xbe,
  0x01, 0x50, 0x3d, 0x3e, 0x1c, 0x60, 0xa2, 0xbd, 0x9b, 0xfd, 0x1c, 0x3e,
  0x1b, 0xe1, 0xb9, 0xbd, 0x14, 0x99, 0xd4, 0x3c, 0x6f, 0x6a, 0xf1, 0x3c,
  0xd5, 0x89, 0x0e, 0xbe, 0xdd, 0x17, 0x0c, 0xbe, 0x33, 0xbb, 0xc4, 0xba,
  0xac, 0x38, 0xa8, 0x3c, 0x8f, 0x2c, 0x9a, 0x3c, 0xc8, 0x8f, 0x66, 0x3e,
  0x8f, 0x04, 0xb5, 0x3e, 0xd0, 0xc2, 0xf0, 0xbd, 0xb2, 0x88, 0x5f, 0xbe,
  0xf9, 0xd6, 0x58, 0xbd, 0x48, 0x0b, 0x08, 0xbe, 0x79, 0x49, 0xc4, 0x3d,
  0xdd, 0x89, 0x15, 0xbd, 0x22, 0x65, 0xe9, 0x3d, 0x0f, 0x1f, 0x5d, 0xbe,
  0x18, 0x16, 0x4d, 0x3b, 0x87, 0x77, 0xa3, 0xbd, 0xf3, 0xd2, 0x2d, 0x3d,
  0x58, 0x65, 0x14, 0x3e, 0x5c, 0x28, 0xe3, 0x3d, 0xde, 0x1b, 0x04, 0xbe,
  0x3e, 0xba, 0xa7, 0xbe, 0x1c, 0xb5, 0x93, 0xbe, 0xd4, 0x2e, 0xc2, 0xbd,
  0xda, 0x3f, 0x93, 0x3e, 0x2a, 0x36, 0x6f, 0xbe, 0xa1, 0xab, 0x4b, 0x3c,
  0xaf, 0x51, 0x49, 0xbe, 0xbb, 0x4c, 0x32, 0xbc, 0xff, 0x31, 0xa7, 0xbe,
  0xd2, 0xc2, 0xb5, 0xbe, 0xa9, 0xc9, 0x62, 0x3d, 0xa5, 0x50, 0xa7, 0x3c,
  0x3b, 0x1a, 0x69, 0xbe, 0x88, 0xc6, 0x16, 0x3d, 0x8a, 0xeb, 0x57, 0xbd,
  0x6e, 0x55, 0xd2, 0xbd, 0x15, 0xa8, 0x72, 0xbd, 0xea, 0x82, 0x1e, 0xbd,
  0x61, 0xc1, 0x0d, 0x3e, 0x6a, 0xcb, 0x66, 0x3e, 0x06, 0xb8, 0x18, 0x3f,
  0xa7, 0x19, 0x31, 0x3e, 0xab, 0x48, 0xd0, 0x3d, 0x78, 0xf1, 0xf3, 0xbd,
  0x2b, 0xf3, 0xb7, 0xbe, 0x07, 0x98, 0xf6, 0xbd, 0x55, 0xed, 0x8a, 0xbe,
  0x37, 0x76, 0x59, 0xbe, 0xac, 0xe0, 0x12, 0xbf, 0xd8, 0xfd, 0x6f, 0xbe,
  0xc3, 0x62, 0x42, 0x3c, 0xe4, 0x59, 0x22, 0xbe, 0x85, 0xc9, 0x00, 0xbc,
  0xda, 0xd7, 0x0c, 0xbe, 0xed, 0xbc, 0x02, 0x3b, 0x19, 0xeb, 0x8a, 0xbe,
  0xa6, 0xa1, 0x43, 0xbc, 0x57, 0xc1, 0xac, 0xbc, 0xed, 0x13, 0xb8, 0xbd,
  0xcd, 0x36, 0x7d, 0xbd, 0x75, 0xb4, 0x10, 0xbe, 0x01, 0xc3, 0xf4, 0x3d,
  0x33, 0x87, 0x0b, 0xbe, 0x71, 0x46, 0x59, 0x3e, 0x71, 0xd3, 0x58, 0xbe,
  0xb1, 0xdc, 0x12, 0xbe, 0x10, 0x2e, 0x51, 0xbe, 0x64, 0x79, 0x2c, 0xbe,
  0x3c, 0xb4, 0x0e, 0xbe, 0xb7, 0xb9, 0x80, 0xbe, 0xc4, 0x06, 0x36, 0x3f,
  0x4c, 0x19, 0x49, 0x3d, 0xcf, 0xbb, 0xba, 0x3d, 0x3a, 0x31, 0xf0, 0x3d,
  0x1a, 0xd6, 0x57, 0xbe, 0xf5, 0x1a, 0xba, 0xba, 0xbd, 0x84, 0x8c, 0x3d,
  0x98, 0x42, 0x02, 0xbe, 0x2b, 0x36, 0xcf, 0xbe, 0x76, 0xf8, 0xa6, 0x3d,
  0xe8, 0xb9, 0x1d, 0xbe, 0xc4, 0xc2, 0x86, 0x3e, 0x65, 0x70, 0xb0, 0x3d,
  0x42, 0x2c, 0xc1, 0x3c, 0xfa, 0x31, 0xb1, 0x3e, 0x92, 0xeb, 0xae, 0xbd,
  0x88, 0xf7, 0x97, 0x3c, 0x9c, 0x36, 0xd5, 0x3b, 0x2a, 0xf4, 0x68, 0xbd,
  0xb2, 0xb9, 0x1f, 0x3e, 0xdb, 0x56, 0xe4, 0x3c, 0x64, 0xb0, 0x2e, 0x3d,
  0xf1, 0x93, 0xd9, 0xbd, 0x5f, 0x77, 0x33, 0xbe, 0x5d, 0xbd, 0x41, 0xbe,
  0xa0, 0x76, 0x88, 0xbe, 0xb7, 0x20, 0x2d, 0xbc, 0x13, 0x15, 0x3e, 0xbd,
  0x3b, 0xce, 0x48, 0xbd, 0xaa, 0xde, 0xdc, 0xbc, 0xe6, 0xb9, 0xd2, 0xbd,
  0xc1, 0xaf, 0x7b, 0xbd, 0xca, 0x36, 0x95, 0xbd, 0x74, 0x61, 0x06, 0xbe,
  0xd5, 0xce, 0x2e, 0xbd, 0x6e, 0xe5, 0x28, 0xbe, 0xb0, 0x29, 0xdb, 0x3a,
  0xf4, 0x26, 0x6f, 0xbe, 0x3d, 0xfd, 0x65, 0xbd, 0x6e, 0x5b, 0xb2, 0xbd,
  0x1e, 0xc7, 0x41, 0xbe, 0x98, 0x16, 0x23, 0x3e, 0xed, 0xe3, 0x17, 0x3f,
  0xc3, 0x5a, 0x18, 0xbe, 0xf7, 0x61, 0xf0, 0xbd, 0xfe, 0x17, 0x09, 0xbc,
  0x3c, 0x73, 0x4c, 0x3e, 0xa2, 0x76, 0x37, 0xbe, 0xc9, 0xe9, 0x75, 0x3e,
  0x03, 0xf3, 0xa9, 0x3d, 0xdf, 0xd4, 0x61, 0xbd, 0x37, 0x2b, 0xf9, 0x3e,
  0x83, 0x3c, 0x1f, 0xbb, 0x77, 0x1f, 0x27, 0x3e, 0x83, 0xb7, 0xcd, 0x3d,
  0x91, 0xdf, 0x56, 0xbd, 0x14, 0xe6, 0x87, 0x3d, 0xc0, 0x52, 0x3e, 0x3d,
  0x55, 0xd5, 0x3b, 0xbe, 0x63, 0x57, 0x80, 0xbd, 0xe9, 0x81, 0xfc, 0xbc,
  0x0f, 0xd1, 0x8d, 0x3c, 0x0f, 0x8a, 0x60, 0x3c, 0x81, 0x58, 0x8d, 0x3d,
  0xaa, 0x85, 0x8b, 0xbd, 0xc0, 0x95, 0x30, 0xbd, 0xb8, 0x3c, 0x79, 0xbe,
  0x95, 0x27, 0x86, 0xbd, 0xfa, 0x28, 0xf8, 0xbd, 0xf3, 0x5d, 0x54, 0x3e,
  0x76, 0xcb, 0x9c, 0xbd, 0xad, 0xef, 0xc3, 0xbd, 0x31, 0x60, 0xff, 0xbd,
  0xf6, 0xa2, 0xbc, 0xbd, 0x13, 0x24, 0x42, 0xbe, 0x31, 0xbd, 0x07, 0xbe,
  0x94, 0x78, 0x22, 0x3e, 0x70, 0xcb, 0xfc, 0xbd, 0xbf, 0xc7, 0x88, 0xbd,
  0xc4, 0x32, 0x3d, 0x3e, 0x59, 0xd3, 0xb0, 0x3e, 0x54, 0xdb, 0xd6, 0x3d,
  0xf4, 0x71, 0x05, 0x3e, 0xe4, 0x1f, 0xf2, 0xbd, 0x26, 0x55, 0x1e, 0x3e,
  0x45, 0xc8, 0xba, 0xbd, 0x6c, 0x12, 0x53, 0x3e, 0x9a, 0x95, 0x22, 0xbe,
  0x68, 0x49, 0x15, 0xbe, 0x50, 0xbe, 0x39, 0x3d, 0x99, 0x9f, 0xae, 0x3e,
  0xdb, 0x4a, 0x78, 0x3e, 0xa0, 0xed, 0x7b, 0xbc, 0xee, 0x75, 0x5b, 0x3e,
  0x8d, 0x45, 0x8a, 0xbe, 0xb3, 0x2d, 0xff, 0xbd, 0x86, 0xc1, 0x2b, 0x3e,
  0x9d, 0x7e, 0x9b, 0x3d, 0xdd, 0xd9, 0x3b, 0xbe, 0x6e, 0xc5, 0xb6, 0xbd,
  0xdc, 0x32, 0x7d, 0xbe, 0x4f, 0x69, 0x66, 0x3c, 0xa4, 0x84, 0x27, 0xbe,
  0x2a, 0x4e, 0x09, 0xbe, 0x4c, 0x94, 0x81, 0x3e, 0x88, 0x92, 0xd2, 0x3c,
  0x06, 0x50, 0x30, 0x3f, 0xc0, 0xf0, 0x2b, 0x3e, 0xe9, 0x2a, 0x49, 0xbe,
  0xae, 0x88, 0x1e, 0xbe, 0x93, 0x3e, 0xc8, 0x3e, 0xd3, 0xef, 0xf7, 0xbd,
  0x17, 0xee, 0x1a, 0xbd, 0xe2, 0x22, 0x28, 0x3d, 0x90, 0x8f, 0x8c, 0xbe,
  0xf7, 0xe3, 0x3d, 0xbd, 0x22, 0x40, 0x5b, 0xbd, 0xac, 0x50, 0xee, 0x3d,
  0xb8, 0xc0, 0x8d, 0x3d, 0x98, 0x1b, 0x12, 0x3d, 0xa5, 0x8b, 0xa3, 0xbd,
  0xe5, 0x10, 0xa4, 0x3b, 0xbf, 0xf3, 0xa2, 0x3d, 0x81, 0xa0, 0xee, 0x3c,
  0x00, 0xa8, 0xac, 0x3e, 0xfc, 0xf8, 0x21, 0xbe, 0x22, 0xdd, 0xee, 0xbe,
  0xed, 0x7e, 0x34, 0xbe, 0xb0, 0xcc, 0x4e, 0xbe, 0x81, 0xec, 0x8e, 0x3c,
  0x31, 0x9f, 0xf0, 0xbe, 0x05, 0xf0, 0xec, 0xbd, 0xd4, 0xc0, 0xe0, 0xbd,
  0x10, 0x57, 0x09, 0xbf, 0x37, 0x64, 0x02, 0xbe, 0x7f, 0xd9, 0xcc, 0xbd,
  0xc1, 0xa8, 0xb5, 0x3e, 0xb8, 0xb1, 0x5f, 0x3d, 0xbf, 0x48, 0x0a, 0x3f,
  0xc3, 0xc2, 0xa6, 0xbd, 0x7d, 0xf7, 0x27, 0xbe, 0x49, 0x17, 0x86, 0x3c,
  0x63, 0x1d, 0xea, 0x3d, 0x15, 0x69, 0xb8, 0xbd, 0xcb, 0xf1, 0x47, 0x3d,
  0xc0, 0x3a, 0xc3, 0x3b, 0x6f, 0x55, 0x5c, 0xbe, 0xb0, 0x08, 0x26, 0x3e,
  0x01, 0xc3, 0x21, 0xbb, 0x03, 0x60, 0x62, 0x3e, 0x95, 0x90, 0x52, 0xbe,
  0x76, 0x61, 0x96, 0xbc, 0x16, 0x17, 0xa9, 0xbe, 0x86, 0xfc, 0x90, 0xbd,
  0x38, 0x04, 0x88, 0xbe, 0x86, 0x63, 0x57, 0xbe, 0x0c, 0xf8, 0x03, 0x3c,
  0x6e, 0x66, 0xaa, 0xbd, 0x11, 0x3f, 0x78, 0x3e, 0x15, 0xc7, 0x4c, 0x3e,
  0x60, 0xac, 0xe1, 0xbc, 0x9f, 0xd0, 0x09, 0xbe, 0xf1, 0x0a, 0x19, 0xbb,
  0xb3, 0xb4, 0xec, 0xbd, 0xed, 0xcb, 0x92, 0x3e, 0xf1, 0x16, 0x8d, 0xbc,
  0x91, 0x36, 0xcd, 0x3d, 0xc5, 0xf7, 0x26, 0xbe, 0xbe, 0x29, 0xcd, 0xbc,
  0xf2, 0xd8, 0x39, 0x3d, 0x6e, 0x1b, 0xf1, 0x3d, 0xe3, 0x12, 0xed, 0x3d,
  0x50, 0x69, 0x3e, 0x3c, 0x38, 0x59, 0x9c, 0xbe, 0x05, 0xcd, 0x93, 0xbe,
  0x4d, 0xc0, 0x2d, 0xbe, 0x04, 0x7c, 0x13, 0x3d, 0xf7, 0x75, 0xe1, 0xbd,
  0xe2, 0xcf, 0x10, 0xbe, 0xb5, 0x0d, 0x0a, 0x3d, 0xde, 0x53, 0x2d, 0xbe,
  0xb7, 0xec, 0x2d, 0x3c, 0x79, 0xf1, 0x23, 0x3e, 0x37, 0x4b, 0xb8, 0xbd,
  0x7c, 0x09, 0x96, 0xbd, 0xde, 0x4a, 0xa3, 0xbc, 0x95, 0xf3, 0xbc, 0xbb,
  0x44, 0x1b, 0x44, 0x3a, 0x88, 0x45, 0x5e, 0x3e, 0xc2, 0xa3, 0xa0, 0xbd,
  0x4e, 0xdf, 0xff, 0xff, 0x10, 0x00, 0x00, 0x00, 0x08, 0x00, 0x00, 0x00,
  0x1c, 0x00, 0x00, 0x00, 0x38, 0x00, 0x00, 0x00, 0x04, 0x00, 0x00, 0x00,
  0x10, 0x00, 0x00, 0x00, 0x04, 0x00, 0x00, 0x00, 0x01, 0x00, 0x00, 0x00,
  0x08, 0x00, 0x00, 0x00, 0x1a, 0x00, 0x00, 0x00, 0x73, 0x65, 0x71, 0x75,
  0x65, 0x6e, 0x74, 0x69, 0x61, 0x6c, 0x2f, 0x63, 0x6f, 0x6e, 0x76, 0x32,
  0x64, 0x5f, 0x31, 0x2f, 0x43, 0x6f, 0x6e, 0x76, 0x32, 0x44, 0x00, 0x00,
  0x48, 0xdf, 0xff, 0xff, 0x3e, 0xe0, 0xff, 0xff, 0x04, 0x00, 0x00, 0x00,
  0x80, 0x01, 0x00, 0x00, 0xb6, 0x48, 0xfc, 0x3e, 0xdf, 0xe5, 0x60, 0x3e,
  0xeb, 0x70, 0x2f, 0xbe, 0x4a, 0x25, 0x9d, 0x3e, 0x9f, 0x59, 0x81, 0x3e,
  0x70, 0x15, 0x56, 0x3d, 0x1f, 0x17, 0xd0, 0xbb, 0x13, 0xa8, 0x8c, 0xbe,
  0x82, 0xb5, 0xfe, 0x3c, 0xd0, 0xc8, 0x33, 0xbe, 0xd6, 0x24, 0x8b, 0xbe,
  0xcb, 0x05, 0x0d, 0x3e, 0x70, 0xc6, 0x0f, 0x3e, 0x4f, 0x53, 0x61, 0x3e,
  0x23, 0xea, 0x80, 0x3c, 0x7a, 0xce, 0xe0, 0x3e, 0xd7, 0xfa, 0x3b, 0x3e,
  0x81, 0xdd, 0x06, 0x3e, 0xef, 0xa0, 0x98, 0xbd, 0x35, 0x2a, 0xea, 0xbd,
  0x76, 0x2b, 0x26, 0xbe, 0x33, 0x8c, 0x63, 0x3d, 0x90, 0xa5, 0x4b, 0xbe,
  0xe4, 0x0a, 0x15, 0xbe, 0x4e, 0x72, 0xe3, 0xbd, 0x5c, 0xbe, 0x21, 0xbd,
  0x1a, 0x0f, 0x07, 0x3e, 0x83, 0x8a, 0xf8, 0xbd, 0x3a, 0x64, 0xd6, 0xbe,
  0x86, 0x6f, 0x97, 0xbe, 0x62, 0x60, 0xa1, 0x3e, 0x48, 0xd0, 0xca, 0x3e,
  0x82, 0xfa, 0x12, 0x3e, 0x46, 0x22, 0xbf, 0x3d, 0x4b, 0x51, 0xcc, 0x3b,
  0x34, 0x43, 0x48, 0x3c, 0x1b, 0x80, 0x98, 0xbe, 0x96, 0xf3, 0x03, 0xbe,
  0x54, 0x22, 0x84, 0xbe, 0xed, 0x96, 0x18, 0x3e, 0x35, 0x74, 0x12, 0x3e,
  0x22, 0x98, 0xbd, 0x3c, 0x71, 0x48, 0x7b, 0xbd, 0x3e, 0x00, 0x35, 0xbd,
  0xf2, 0x9c, 0x5c, 0xbd, 0x9c, 0x66, 0xf4, 0x3d, 0x3c, 0x54, 0xb1, 0x3d,
  0x69, 0x07, 0xa3, 0x3e, 0x19, 0x74, 0xae, 0x3c, 0x72, 0x7b, 0x81, 0x3c,
  0x6d, 0x65, 0xef, 0x3c, 0x40, 0x18, 0x98, 0x3e, 0xfd, 0x3f, 0x0d, 0xbe,
  0x79, 0x67, 0xfc, 0xbe, 0xaf, 0x62, 0x73, 0xbe, 0xcd, 0xa8, 0x2b, 0x3e,
  0x23, 0x28, 0xdf, 0x3e, 0x9a, 0xfd, 0x4c, 0xbd, 0xc5, 0xd7, 0x03, 0xbd,
  0x60, 0x30, 0xf2, 0x3c, 0x96, 0xcc, 0x27, 0xbe, 0x9f, 0xaf, 0x0d, 0xbe,
  0x45, 0x70, 0x36, 0xbe, 0xec, 0x01, 0x0a, 0x3e, 0xcc, 0x6a, 0x0d, 0xbd,
  0x32, 0xd6, 0xb9, 0xbe, 0x40, 0xbb, 0x6a, 0x3d, 0xc9, 0x60, 0x39, 0x3e,
  0x97, 0xe0, 0x04, 0x3f, 0xee, 0x84, 0x70, 0x3d, 0xda, 0x02, 0x6e, 0xbc,
  0x48, 0x02, 0x99, 0x3c, 0xc4, 0x34, 0x5a, 0x3e, 0x32, 0xa4, 0x28, 0x3e,
  0xe0, 0xde, 0xd6, 0xbb, 0xd7, 0x74, 0x1f, 0x3f, 0xba, 0x25, 0x39, 0x3e,
  0x2c, 0x7b, 0x1b, 0xbd, 0x5b, 0xa1, 0xea, 0x3d, 0x97, 0x15, 0x86, 0xbe,
  0xec, 0x31, 0x5c, 0x3d, 0x11, 0xbf, 0x90, 0x3e, 0x37, 0xbb, 0x9e, 0xbe,
  0x06, 0x46, 0x12, 0xbc, 0x2d, 0x96, 0x6a, 0x3e, 0xa0, 0x00, 0x65, 0xbe,
  0x8d, 0x77, 0x9f, 0x3c, 0x7b, 0x3a, 0x82, 0xbd, 0xf7, 0xa4, 0xfc, 0x3d,
  0xce, 0x50, 0x4e, 0xbc, 0x38, 0xee, 0x90, 0xbd, 0x2e, 0x30, 0xfa, 0x3d,
  0xbb, 0xd8, 0x9d, 0x3d, 0xb1, 0xb3, 0xbf, 0xbd, 0xed, 0x08, 0x92, 0x3d,
  0x62, 0x1f, 0x03, 0x3d, 0x26, 0xe1, 0xff, 0xff, 0x10, 0x00, 0x00, 0x00,
  0x07, 0x00, 0x00, 0x00, 0x1c, 0x00, 0x00, 0x00, 0x38, 0x00, 0x00, 0x00,
  0x04, 0x00, 0x00, 0x00, 0x08, 0x00, 0x00, 0x00, 0x04, 0x00, 0x00, 0x00,
  0x03, 0x00, 0x00, 0x00, 0x01, 0x00, 0x00, 0x00, 0x18, 0x00, 0x00, 0x00,
  0x73, 0x65, 0x71, 0x75, 0x65, 0x6e, 0x74, 0x69, 0x61, 0x6c, 0x2f, 0x63,
  0x6f, 0x6e, 0x76, 0x32, 0x64, 0x2f, 0x43, 0x6f, 0x6e, 0x76, 0x32, 0x44,
  0x00, 0x00, 0x00, 0x00, 0x20, 0xe1, 0xff, 0xff, 0x16, 0xe2, 0xff, 0xff,
  0x04, 0x00, 0x00, 0x00, 0x80, 0x00, 0x00, 0x00, 0x11, 0xed, 0xf3, 0x3d,
  0xc6, 0xad, 0x2a, 0xbe, 0xe2, 0xd6, 0x18, 0xbe, 0xab, 0x87, 0xd9, 0x3e,
  0xe3, 0xc2, 0xea, 0x3e, 0x46, 0x15, 0x94, 0xbe, 0x28, 0xcf, 0x14, 0xbc,
  0xa5, 0x98, 0x00, 0x3f, 0x3d, 0xea, 0x2d, 0xbe, 0x4e, 0x92, 0x79, 0xbe,
  0xf0, 0xfc, 0xbe, 0x3e, 0x11, 0xc5, 0xfd, 0xbd, 0xef, 0xa7, 0xac, 0x3e,
  0x9e, 0xac, 0x4a, 0xbe, 0x84, 0xf0, 0xba, 0x3e, 0x58, 0x76, 0x33, 0xbb,
  0x3e, 0xc0, 0x70, 0x3d, 0xb0, 0xd1, 0xea, 0xbd, 0xf9, 0xa5, 0x3e, 0xbe,
  0x4f, 0xc9, 0xc1, 0x3e, 0xe2, 0x08, 0xb7, 0x3c, 0x80, 0x98, 0x53, 0xbe,
  0x67, 0x2d, 0x2f, 0x3d, 0xdd, 0xe2, 0xf6, 0x3e, 0xa0, 0x92, 0x14, 0xbe,
  0x01, 0x82, 0x9e, 0xbe, 0x7b, 0x71, 0xe6, 0x3e, 0x7a, 0xac, 0x35, 0xbf,
  0x7b, 0x9e, 0x86, 0x3e, 0xd3, 0x4a, 0x2f, 0xbe, 0x3f, 0xa8, 0x40, 0xbf,
  0x50, 0xf1, 0xab, 0xbe, 0xfe, 0xe1, 0xff, 0xff, 0x10, 0x00, 0x00, 0x00,
  0x06, 0x00, 0x00, 0x00, 0x14, 0x00, 0x00, 0x00, 0x30, 0x00, 0x00, 0x00,
  0x02, 0x00, 0x00, 0x00, 0x02, 0x00, 0x00, 0x00, 0x10, 0x00, 0x00, 0x00,
  0x19, 0x00, 0x00, 0x00, 0x73, 0x65, 0x71, 0x75, 0x65, 0x6e, 0x74, 0x69,
  0x61, 0x6c, 0x2f, 0x64, 0x65, 0x6e, 0x73, 0x65, 0x5f, 0x31, 0x2f, 0x4d,
  0x61, 0x74, 0x4d, 0x75, 0x6c, 0x00, 0x00, 0x00, 0xf0, 0xe1, 0xff, 0xff,
  0xe6, 0xe2, 0xff, 0xff, 0x04, 0x00, 0x00, 0x00, 0x00, 0x1c, 0x00, 0x00,
  0xe5, 0x54, 0xc0, 0x3e, 0x55, 0x64, 0x0b, 0xbe, 0x9d, 0x25, 0xb4, 0x3e,
  0xaa, 0xbb, 0xe4, 0x3f, 0xf8, 0x99, 0xe0, 0xbe, 0x95, 0x06, 0xd0, 0xbd,
  0x18, 0x5a, 0xc3, 0xbe, 0xa5, 0x06, 0x9e, 0x3e, 0xdf, 0x57, 0xbb, 0xbe,
  0xf6, 0xb5, 0x9e, 0x3e, 0xd0, 0x0e, 0x04, 0x3e, 0x21, 0xbd, 0xd5, 0xbc,
  0xab, 0x11, 0xc9, 0xbd, 0x9f, 0x20, 0xaa, 0x3d, 0xde, 0x97, 0x69, 0x3e,
  0x20, 0x23, 0x97, 0xbd, 0x73, 0x35, 0x2c, 0xbe, 0x2d, 0x90, 0x17, 0xbe,
  0xb5, 0x07, 0x9c, 0xbd, 0xa8, 0x0f, 0xd3, 0x3f, 0x2f, 0x12, 0x3a, 0xbd,
  0xd5, 0x56, 0x05, 0xbe, 0x1c, 0x7a, 0x7a, 0x3f, 0xe0, 0x49, 0xf1, 0xbd,
  0x2d, 0x6c, 0x81, 0xbe, 0x98, 0xa3, 0xb3, 0xbe, 0x07, 0xad, 0x28, 0xbf,
  0xee, 0xac, 0xa5, 0xbd, 0x9b, 0x16, 0x79, 0xbd, 0x09, 0xe7, 0xc4, 0xbe,
  0x78, 0xe1, 0x85, 0x3d, 0xe6, 0xa0, 0xab, 0x3d, 0xbb, 0xf5, 0x36, 0xbe,
  0xc9, 0x28, 0xdb, 0xbc, 0x9f, 0x5b, 0xaf, 0x3d, 0x6a, 0x5b, 0xc5, 0x3f,
  0x49, 0xe4, 0x8d, 0x3e, 0x06, 0x09, 0x9c, 0x3e, 0xf4, 0x73, 0x82, 0x3f,
  0x0d, 0x89, 0x88, 0x3d, 0x3d, 0x35, 0x62, 0xbe, 0xe6, 0xc4, 0xa3, 0xbd,
  0xf3, 0x81, 0xd5, 0xbd, 0xb4, 0xfa, 0xd3, 0xbd, 0x00, 0x48, 0x05, 0xbd,
  0x05, 0x9b, 0xe8, 0xbb, 0x37, 0x4f, 0xe1, 0xbd, 0xeb, 0xde, 0x1f, 0x3d,
  0x5d, 0x51, 0x01, 0xbe, 0x94, 0xb4, 0x99, 0x3d, 0xfc, 0x46, 0x5d, 0xbe,
  0x5a, 0xec, 0xb8, 0x3f, 0xd3, 0xeb, 0x4c, 0x3e, 0x42, 0x10, 0x3a, 0x3e,
  0xfc, 0xf6, 0x8d, 0x3f, 0xc7, 0xb5, 0x51, 0xbe, 0x11, 0xe7, 0x50, 0xbe,
  0x79, 0x21, 0x34, 0xbe, 0x54, 0x59, 0x22, 0xbe, 0xca, 0xc6, 0x50, 0xbe,
  0xdd, 0xbc, 0xc3, 0xbb, 0x04, 0x87, 0x51, 0xbd, 0xc0, 0x6c, 0x07, 0x3e,
  0x1b, 0x1d, 0xcc, 0x3c, 0xca, 0xaf, 0x8f, 0x3d, 0xba, 0xc8, 0xf3, 0x3c,
  0x4f, 0xde, 0x37, 0xbd, 0xff, 0x73, 0xb8, 0x3f, 0x01, 0x79, 0x30, 0xbc,
  0x5a, 0x51, 0x3f, 0x3c, 0xe4, 0x61, 0x1f, 0x3f, 0x94, 0xcf, 0xbb, 0xbe,
  0x58, 0x8b, 0xad, 0x3d, 0xe3, 0x9e, 0x85, 0xbd, 0x75, 0x2b, 0x7f, 0xbd,
  0x0d, 0xc8, 0xea, 0xbd, 0x37, 0x9b, 0x4d, 0xbd, 0xdc, 0x8f, 0x35, 0xbe,
  0x3d, 0x88, 0x50, 0xbe, 0xb3, 0x95, 0x84, 0xbc, 0x90, 0x6a, 0x72, 0xbe,
  0x50, 0x27, 0x03, 0x3e, 0x76, 0x3a, 0x14, 0xbc, 0x21, 0x58, 0xa7, 0x3f,
  0x41, 0x1c, 0x5b, 0xbe, 0x07, 0xb0, 0x88, 0x3e, 0x55, 0x5c, 0x38, 0x3e,
  0xa7, 0xf7, 0xef, 0x3b, 0x5e, 0x18, 0xbc, 0xbd, 0x60, 0x0c, 0x06, 0x3e,
  0x2c, 0x6a, 0xeb, 0xbd, 0x43, 0x51, 0x96, 0xbd, 0x0f, 0xba, 0xac, 0xbd,
  0xc5, 0xf3, 0x6d, 0xbe, 0x51, 0x9e, 0x30, 0xbe, 0xe7, 0x53, 0x31, 0xbd,
  0xc1, 0x11, 0x92, 0x3e, 0x43, 0x15, 0x30, 0xbe, 0xd3, 0x87, 0xde, 0x3d,
  0xd7, 0xd6, 0x58, 0xbd, 0x82, 0xdc, 0xa4, 0x3e, 0xcb, 0xda, 0xd2, 0x3b,
  0xa5, 0xfa, 0xc8, 0x3c, 0x42, 0xa5, 0x8a, 0x3d, 0x1b, 0xeb, 0xea, 0xbd,
  0x82, 0xd4, 0x80, 0xbe, 0xaa, 0x25, 0xf1, 0xbd, 0x3c, 0xde, 0xdb, 0x3d,
  0x18, 0x9d, 0x0a, 0x3d, 0x4c, 0xd5, 0x29, 0x3b, 0x6b, 0x1a, 0x04, 0x3f,
  0x18, 0x8a, 0x3f, 0xbd, 0x33, 0xd1, 0xf9, 0xbe, 0xfd, 0x6f, 0x99, 0x3e,
  0x99, 0x8e, 0x71, 0xbe, 0xf3, 0x8b, 0xc2, 0xbe, 0x20, 0x53, 0x27, 0x3e,
  0xb6, 0x9b, 0x78, 0x3e, 0x77, 0x6a, 0xa6, 0x3e, 0xb2, 0x1e, 0xf1, 0xbe,
  0xe7, 0xa3, 0x18, 0x3d, 0x9d, 0x03, 0xfb, 0xbd, 0x37, 0x8e, 0x9f, 0xbe,
  0xb5, 0xd3, 0x48, 0xbe, 0xe7, 0x85, 0x9a, 0x3d, 0xe6, 0x25, 0x31, 0xbe,
  0xd9, 0x35, 0x37, 0xbf, 0x2f, 0x8a, 0x08, 0x3d, 0x8a, 0x26, 0xa3, 0x3e,
  0xc5, 0x31, 0x92, 0x3e, 0xd5, 0x86, 0x97, 0x3e, 0x7e, 0x37, 0x9f, 0xbe,
  0xb1, 0x42, 0xaa, 0x3d, 0xf7, 0x89, 0x40, 0xbd, 0xeb, 0xfc, 0x0b, 0xbd,
  0x4f, 0x81, 0xa7, 0x3d, 0xea, 0x05, 0x65, 0xbc, 0x95, 0x70, 0xf7, 0x3d,
  0xff, 0x7c, 0x5e, 0x3e, 0x7c, 0x52, 0x54, 0x3d, 0x04, 0xbe, 0x98, 0x3d,
  0x12, 0x15, 0x07, 0xbc, 0xfb, 0xe4, 0xbd, 0x3e, 0x3a, 0xd4, 0x19, 0x3d,
  0x08, 0xf0, 0xbb, 0x3e, 0x0b, 0xeb, 0x6c, 0x3e, 0x6b, 0x20, 0x8b, 0x3d,
  0xcd, 0xf4, 0x6a, 0xbe, 0xa8, 0x30, 0x12, 0x3e, 0xb3, 0x73, 0xd2, 0x3d,
  0xd3, 0x67, 0xf5, 0x3a, 0x49, 0xff, 0x7e, 0x3d, 0xc7, 0x2a, 0xe2, 0xbd,
  0x12, 0xfa, 0x34, 0x3e, 0x1e, 0x33, 0x22, 0xbc, 0xf5, 0xa8, 0x72, 0x3e,
  0xb2, 0xc1, 0xe9, 0x3d, 0x9a, 0x74, 0x8d, 0x3c, 0x88, 0x02, 0x04, 0x3f,
  0xd5, 0xff, 0x38, 0xbd, 0x12, 0x73, 0x58, 0x3e, 0x61, 0x6a, 0xc7, 0x3d,
  0x14, 0xf0, 0x35, 0x3d, 0x30, 0xcf, 0x87, 0xbe, 0xe1, 0x4e, 0x4f, 0x3e,
  0x72, 0xc5, 0x08, 0x3d, 0x25, 0xa2, 0xb1, 0xbc, 0x66, 0x66, 0x82, 0x3e,
  0xfb, 0x42, 0x1e, 0x3e, 0xfc, 0xf5, 0x2a, 0x3e, 0x35, 0x68, 0x64, 0x3e,
  0xb2, 0x1a, 0xd6, 0x3e, 0xbd, 0x20, 0xf4, 0x3c, 0x05, 0x3e, 0x61, 0x3e,
  0xca, 0x21, 0xec, 0x3e, 0xe9, 0x2e, 0xf8, 0x3c, 0xb4, 0xf8, 0x9b, 0x3e,
  0x0e, 0xa6, 0x35, 0x3e, 0x66, 0x7a, 0x42, 0x3e, 0x54, 0xa3, 0x9a, 0xbd,
  0x3e, 0x86, 0xb5, 0x3d, 0x16, 0x4c, 0xc1, 0x3d, 0x7b, 0x8f, 0x57, 0x3d,
  0x35, 0x9d, 0x5e, 0x3e, 0x3f, 0xd6, 0x03, 0x3e, 0xba, 0x0f, 0x9a, 0x3e,
  0xaf, 0xa6, 0x68, 0x3e, 0xcf, 0x0a, 0xd4, 0x3e, 0xd4, 0x6d, 0x02, 0x3e,
  0xde, 0xf2, 0x67, 0x3e, 0xca, 0x4d, 0xdd, 0x3e, 0x81, 0x7b, 0x50, 0xbd,
  0x20, 0xc2, 0x57, 0x3e, 0x0f, 0xce, 0xae, 0x3e, 0xc6, 0xf6, 0x41, 0x3e,
  0x77, 0xe4, 0x05, 0xbe, 0x99, 0x39, 0x91, 0x3e, 0xb8, 0x3e, 0x5a, 0xbd,
  0xa4, 0x88, 0xb5, 0x3e, 0xa5, 0xb7, 0x14, 0x3f, 0x19, 0x60, 0x82, 0x3e,
  0x41, 0x25, 0xb8, 0xbb, 0x41, 0x9c, 0x1f, 0x3e, 0x74, 0xed, 0xd9, 0x3e,
  0x3c, 0xbb, 0x2a, 0x3d, 0xf9, 0x8a, 0xaf, 0x3e, 0x1c, 0xef, 0x9d, 0x3e,
  0xfd, 0x05, 0xbe, 0x3d, 0x83, 0x53, 0xb0, 0xbe, 0xa9, 0xf0, 0xba, 0x3d,
  0x8c, 0x77, 0xef, 0xbd, 0x7f, 0xd0, 0x6f, 0x3e, 0x8e, 0x6f, 0xf4, 0xbe,
  0xf1, 0x71, 0xba, 0x3e, 0x4f, 0x69, 0x7d, 0x3e, 0xe6, 0xbd, 0xf0, 0xbd,
  0xd6, 0x4b, 0xca, 0x3d, 0xe7, 0x8b, 0x55, 0x3e, 0xbf, 0x9c, 0x3c, 0xbd,
  0xb0, 0x9a, 0x8e, 0xbe, 0x53, 0x3c, 0x72, 0xbd, 0x75, 0xec, 0xa3, 0xbd,
  0xf4, 0x05, 0x21, 0xbf, 0x73, 0x5a, 0xa2, 0x3d, 0xe2, 0x81, 0x85, 0x3d,
  0x18, 0x77, 0xfe, 0x3c, 0xa1, 0xd7, 0x99, 0xbd, 0xa1, 0xf7, 0x03, 0x40,
  0x11, 0x57, 0x1f, 0xbe, 0x9c, 0x88, 0xe2, 0xbc, 0xae, 0x11, 0x9b, 0x3e,
  0xce, 0x07, 0xc6, 0xbe, 0x5b, 0x13, 0x19, 0x3d, 0x37, 0x41, 0x73, 0xbe,
  0x3f, 0x3b, 0xae, 0xbd, 0x89, 0x2f, 0x65, 0xbe, 0x6a, 0xfc, 0x09, 0xbd,
  0x1f, 0xfd, 0xa7, 0xbd, 0x3c, 0x9b, 0xa9, 0xbe, 0xc1, 0xb4, 0x55, 0xbd,
  0x93, 0xc1, 0x39, 0x3c, 0x33, 0x20, 0x41, 0x3d, 0xae, 0xef, 0x6f, 0x3d,
  0xb8, 0x3e, 0xd1, 0x3f, 0x54, 0x12, 0xb5, 0x3c, 0x5f, 0x80, 0xc5, 0x3d,
  0x00, 0x23, 0x68, 0x3f, 0xe5, 0x08, 0x1c, 0xbe, 0x31, 0x80, 0xf5, 0x3c,
  0x36, 0xff, 0xae, 0x3d, 0xf4, 0x2a, 0x9f, 0xbc, 0x63, 0x8e, 0x6d, 0xbd,
  0xed, 0xab, 0x7e, 0xbc, 0x75, 0x2d, 0xce, 0x3c, 0x1c, 0xbb, 0x0a, 0xbe,
  0x89, 0x88, 0x93, 0xbd, 0x49, 0x3a, 0x4c, 0x3e, 0xf0, 0xc9, 0x17, 0x3d,
  0x94, 0x57, 0x0a, 0xbe, 0x03, 0x44, 0xd6, 0x3f, 0xc1, 0xa5, 0x01, 0xbe,
  0xd3, 0xd8, 0xb6, 0xbc, 0xac, 0x28, 0x46, 0x3f, 0x51, 0x8c, 0x3d, 0xbd,
  0x04, 0x1a, 0x91, 0x3d, 0xc6, 0x73, 0x64, 0x3d, 0x09, 0x00, 0x13, 0x3e,
  0x5f, 0x73, 0x5e, 0xbd, 0xd6, 0xef, 0x3e, 0xbd, 0xf8, 0x13, 0x95, 0x3c,
  0xb2, 0xe6, 0x4e, 0xbe, 0xa9, 0x5b, 0xfa, 0x3c, 0x88, 0x9e, 0xac, 0xbd,
  0x0c, 0x82, 0xb9, 0xbd, 0x52, 0x21, 0x67, 0xbe, 0x8f, 0x1a, 0xc4, 0x3f,
  0x7b, 0x0c, 0xc9, 0xbd, 0x47, 0x5f, 0x28, 0xbe, 0xf5, 0x0f, 0x90, 0x3f,
  0x71, 0x0c, 0x4b, 0xbe, 0xee, 0xa9, 0xd7, 0x3d, 0xf7, 0xa9, 0xfa, 0x3d,
  0x4a, 0x71, 0x2e, 0xbb, 0xad, 0x8b, 0x7c, 0xbe, 0x9a, 0xaf, 0x13, 0xbd,
  0x20, 0xae, 0x8c, 0x3d, 0x3e, 0x65, 0xdd, 0x3b, 0x35, 0x9c, 0x1a, 0x3d,
  0x37, 0x0b, 0x2e, 0x3e, 0x06, 0x98, 0xc5, 0x3e, 0xe0, 0xcf, 0x64, 0xbe,
  0x3a, 0xcf, 0xda, 0x3f, 0x77, 0x6d, 0x56, 0xbe, 0x1f, 0xda, 0xb2, 0xbc,
  0x8c, 0xb8, 0x3b, 0x3f, 0x6f, 0x75, 0x95, 0xbe, 0xd7, 0xb5, 0xa2, 0xbd,
  0xad, 0xf1, 0xc1, 0xbd, 0x6a, 0x22, 0x08, 0xbd, 0xb3, 0xfa, 0xac, 0xbd,
  0x15, 0xa4, 0xc8, 0x3c, 0x0f, 0xd1, 0x5e, 0xbe, 0x51, 0x45, 0x08, 0xbe,
  0x55, 0xd8, 0x06, 0xbd, 0xab, 0x64, 0xc9, 0xbd, 0x57, 0x0c, 0xf5, 0x3d,
  0xd4, 0x64, 0x87, 0xbe, 0xc7, 0xa1, 0x9e, 0x3f, 0x9c, 0x1a, 0x71, 0xbe,
  0x03, 0x49, 0xd9, 0xbd, 0x3e, 0xbd, 0x7e, 0x3e, 0x35, 0xb5, 0x90, 0x3c,
  0x13, 0xb3, 0x1d, 0xbe, 0xb3, 0x03, 0x28, 0xbd, 0x86, 0xd4, 0x05, 0xbe,
  0xba, 0x41, 0x07, 0xbf, 0x3a, 0x3a, 0x3e, 0xbe, 0x31, 0xa1, 0xe8, 0xbe,
  0x5e, 0x86, 0x9e, 0xbe, 0xb9, 0xa4, 0x6c, 0xbe, 0x34, 0x39, 0xab, 0x3e,
  0xd7, 0xe0, 0xd8, 0x3e, 0x5b, 0xfb, 0xc8, 0x3e, 0x78, 0x4f, 0xfa, 0x3d,
  0xbe, 0x4b, 0xbc, 0x3e, 0xae, 0xef, 0xfb, 0xbd, 0x93, 0xbd, 0xba, 0xbe,
  0x15, 0xfd, 0xf8, 0x3e, 0x18, 0x08, 0x86, 0xbe, 0x16, 0x2e, 0xf7, 0xbe,
  0xd4, 0x3c, 0x3a, 0xbe, 0xf5, 0x3a, 0xcc, 0x3d, 0xad, 0x4a, 0xd2, 0x3d,
  0x2f, 0x45, 0xe9, 0x3d, 0xd4, 0x38, 0xc1, 0x3e, 0x16, 0x7b, 0xdb, 0xbd,
  0xf6, 0x84, 0x75, 0x3d, 0xc5, 0xbf, 0x1b, 0x3e, 0x19, 0x67, 0x8e, 0xbe,
  0x2d, 0x2b, 0x9d, 0xbe, 0xf0, 0x71, 0xba, 0x3d, 0x3a, 0x4a, 0x4b, 0xbe,
  0x4e, 0xad, 0x4f, 0xbe, 0x53, 0x3f, 0xa4, 0xbc, 0x50, 0x59, 0x54, 0x3d,
  0xe5, 0xa4, 0x15, 0xbe, 0xd4, 0x44, 0xbf, 0xbd, 0x7b, 0x38, 0x4b, 0xbe,
  0x7a, 0x4e, 0x33, 0xbd, 0x83, 0xc8, 0xea, 0xbd, 0x3f, 0x4a, 0xbf, 0xbd,
  0x2a, 0x51, 0x83, 0x3d, 0x3c, 0x48, 0x4c, 0xbd, 0x10, 0x36, 0x03, 0x3e,
  0xd3, 0xf1, 0x02, 0x3e, 0x5f, 0x23, 0x8a, 0xbd, 0x9c, 0x2d, 0xd9, 0xbd,
  0x25, 0x6d, 0x2d, 0x3e, 0x6d, 0x0a, 0xc0, 0xbd, 0xc9, 0xd7, 0x97, 0x3c,
  0x01, 0x43, 0x4c, 0x3e, 0x9f, 0xb4, 0x03, 0xbd, 0x67, 0x1d, 0xed, 0xbb,
  0xc7, 0x02, 0x4a, 0x3e, 0x2c, 0x6f, 0x02, 0xbe, 0xc5, 0x61, 0x35, 0x3d,
  0x61, 0xc6, 0x6e, 0x3d, 0x5c, 0x91, 0x3f, 0xbd, 0x42, 0x0e, 0x5d, 0xbe,
  0x58, 0x09, 0x9f, 0xbd, 0x20, 0x1c, 0xdf, 0x3d, 0x88, 0xc0, 0x17, 0xbd,
  0xe4, 0x0c, 0x0f, 0xbe, 0x39, 0xdf, 0x90, 0x3d, 0x28, 0xe2, 0x8c, 0xbe,
  0x71, 0x77, 0xe3, 0x3d, 0xf3, 0x6b, 0x2b, 0x3e, 0x0b, 0x16, 0x71, 0xbe,
  0x08, 0xcc, 0x06, 0x3e, 0x4c, 0x94, 0x1e, 0x3e, 0x92, 0xdb, 0x20, 0xbc,
  0xc3, 0xe5, 0x95, 0xbd, 0x58, 0x40, 0xde, 0xbb, 0xa0, 0x7c, 0xee, 0xbc,
  0x12, 0xdf, 0x3b, 0xbe, 0x7c, 0x79, 0x7d, 0x3d, 0x9e, 0x39, 0x73, 0xbd,
  0x39, 0xc7, 0x95, 0xbe, 0x64, 0xec, 0xa8, 0xbb, 0x30, 0xbf, 0xd9, 0xbd,
  0x99, 0xe6, 0xd4, 0xbc, 0x1a, 0xc4, 0x66, 0x3e, 0xef, 0x5f, 0xff, 0x36,
  0xa4, 0x2b, 0x7c, 0xbe, 0x25, 0x7e, 0xb3, 0x3d, 0x1f, 0x9c, 0x9e, 0xbd,
  0x35, 0x57, 0xbf, 0x3d, 0x52, 0xaf, 0x50, 0xbd, 0x33, 0xa5, 0xeb, 0xbd,
  0x61, 0xa8, 0x97, 0xbd, 0x06, 0x9a, 0x7e, 0xbe, 0x55, 0xaf, 0x29, 0x3e,
  0x61, 0xc4, 0x1d, 0xbe, 0x92, 0x31, 0xa7, 0xbe, 0x51, 0x96, 0x51, 0xbe,
  0xea, 0x8f, 0x88, 0x3c, 0xad, 0x22, 0x16, 0x3e, 0xed, 0x39, 0x50, 0x3e,
  0xae, 0x06, 0x40, 0x3d, 0x9b, 0x77, 0x09, 0xbe, 0xb1, 0x10, 0xee, 0x3d,
  0x0f, 0x7b, 0x19, 0x3e, 0x18, 0xff, 0x8a, 0xbd, 0x1f, 0x86, 0xe3, 0xbd,
  0xec, 0x7d, 0xf6, 0xbd, 0x7a, 0x2f, 0x24, 0xbd, 0x06, 0x6b, 0x6f, 0xbd,
  0x4b, 0x51, 0x84, 0x3d, 0x8f, 0x5e, 0xe7, 0x3d, 0x7f, 0xf9, 0xe8, 0x3d,
  0x17, 0x23, 0xaa, 0x3d, 0x2f, 0xf7, 0x8e, 0x3b, 0x09, 0xff, 0xb3, 0xbe,
  0xcf, 0xc6, 0x17, 0xbd, 0x35, 0x86, 0xe7, 0x3c, 0xf4, 0x3f, 0xae, 0x3c,
  0xb0, 0xcf, 0x3d, 0x3c, 0x6d, 0x18, 0x9e, 0xbd, 0x5e, 0xae, 0x40, 0xbe,
  0xf1, 0xbb, 0x63, 0xbe, 0xe8, 0x4d, 0xbd, 0x3c, 0xfe, 0xfb, 0x17, 0xbe,
  0xaf, 0x71, 0x8d, 0x3e, 0x6e, 0x2b, 0x88, 0x3e, 0x6b, 0x65, 0xb1, 0x3e,
  0x65, 0xa0, 0x3e, 0xbe, 0x57, 0xd4, 0xa7, 0x3e, 0xf6, 0x29, 0xe5, 0xbd,
  0x25, 0x02, 0x8b, 0xbe, 0xae, 0xae, 0x8e, 0x3d, 0x1d, 0x94, 0x4a, 0xbe,
  0x29, 0xe6, 0xa1, 0xbe, 0x7e, 0x3f, 0x48, 0xbe, 0xf6, 0x83, 0x09, 0x3d,
  0x85, 0x28, 0xe2, 0x3d, 0xc3, 0x77, 0xcd, 0x3d, 0x86, 0x20, 0x36, 0x3e,
  0xae, 0x46, 0xa2, 0xbd, 0xda, 0x82, 0x19, 0xbe, 0xdb, 0xc8, 0xcf, 0x3d,
  0x6c, 0x71, 0x00, 0xbe, 0x80, 0xdd, 0x3f, 0xbe, 0x0a, 0xa0, 0xe8, 0x3d,
  0xcb, 0xe4, 0x66, 0xbe, 0x73, 0x01, 0x94, 0xbd, 0xce, 0x45, 0x5c, 0x3e,
  0x8a, 0x89, 0x11, 0xbd, 0x16, 0x9e, 0x9d, 0xbd, 0x35, 0xd5, 0x1c, 0xbe,
  0x5b, 0x6a, 0x1c, 0xbe, 0x73, 0x64, 0x9e, 0xbe, 0xd3, 0x97, 0x68, 0xbe,
  0x00, 0x40, 0x06, 0x3e, 0xf6, 0x34, 0x99, 0xbd, 0xb4, 0xf7, 0xed, 0x3d,
  0x47, 0x7c, 0x15, 0x3e, 0x6c, 0xad, 0x98, 0x3b, 0xeb, 0xac, 0xd3, 0xbd,
  0xa9, 0x2e, 0x61, 0x3d, 0xd6, 0x11, 0xfd, 0x3c, 0x94, 0x5f, 0x59, 0xbe,
  0x37, 0xed, 0x83, 0x3d, 0xb0, 0xaf, 0xc8, 0x3d, 0xf9, 0x8b, 0x91, 0x3d,
  0x81, 0x05, 0x02, 0x3d, 0xe3, 0x83, 0xc0, 0xbd, 0xf8, 0x75, 0x6f, 0xbd,
  0xda, 0x1c, 0x77, 0xbe, 0x3d, 0xe2, 0x02, 0x3e, 0x52, 0x41, 0x9d, 0x3c,
  0x81, 0x86, 0x7d, 0xbd, 0xe4, 0x0e, 0x2d, 0x3e, 0xe3, 0x45, 0xcf, 0x3d,
  0x8a, 0xcb, 0x9f, 0xbd, 0x03, 0xb3, 0x57, 0x3d, 0xd9, 0x1c, 0x70, 0x3d,
  0x19, 0xbf, 0x52, 0xbe, 0x67, 0xef, 0x86, 0x3d, 0xcc, 0xdd, 0xa0, 0x3c,
  0x07, 0xc9, 0x62, 0xbc, 0xae, 0x00, 0x3a, 0x3e, 0xde, 0xac, 0xbb, 0x3d,
  0xdc, 0x22, 0x94, 0xbe, 0xcb, 0x30, 0x33, 0xbe, 0xfd, 0x37, 0x41, 0xbe,
  0x99, 0x5d, 0x84, 0xbe, 0x04, 0x43, 0x12, 0x3e, 0xed, 0xc6, 0x0e, 0x3e,
  0xcc, 0xad, 0x83, 0x3d, 0xf7, 0x2b, 0x15, 0xbe, 0xae, 0x89, 0xfe, 0xbd,
  0x56, 0x42, 0x84, 0x3d, 0x44, 0x0c, 0xf5, 0x3d, 0xf1, 0x2b, 0x51, 0x3d,
  0xcc, 0x14, 0x78, 0xbe, 0x41, 0x28, 0x52, 0xbe, 0x18, 0x85, 0x23, 0xbe,
  0x71, 0xbb, 0xfc, 0xbd, 0xa3, 0x91, 0x21, 0xbe, 0x26, 0xf8, 0x00, 0xbe,
  0x3e, 0x0a, 0x12, 0x3d, 0xe7, 0x31, 0x8c, 0x3d, 0x98, 0x2d, 0x10, 0x3e,
  0x56, 0x6b, 0x2d, 0x3d, 0xb8, 0xe9, 0x4e, 0xbd, 0xec, 0xe4, 0x5a, 0xbd,
  0xd4, 0x6d, 0xbe, 0x3d, 0x11, 0xb3, 0x51, 0xbb, 0xfd, 0x50, 0x0e, 0xbd,
  0x2b, 0x09, 0xf0, 0xbd, 0xa1, 0x13, 0xb5, 0xbd, 0x51, 0x74, 0x02, 0x3d,
  0xb0, 0xd6, 0x34, 0xbc, 0x27, 0xbe, 0xaf, 0x3d, 0x21, 0x82, 0x87, 0xbe,
  0x27, 0x14, 0x14, 0xbd, 0xe9, 0xb0, 0x23, 0x3d, 0x7c, 0xf0, 0xa9, 0xbb,
  0x89, 0xd4, 0xea, 0xbd, 0xfd, 0x7c, 0x25, 0x3c, 0xaf, 0x1d, 0x4d, 0x3b,
  0x5c, 0xa4, 0x5f, 0xbe, 0x6c, 0x75, 0x55, 0xbe, 0x68, 0xd3, 0xa1, 0xbc,
  0x6b, 0x8d, 0x28, 0xbe, 0x67, 0x2e, 0x56, 0xbc, 0x8e, 0xee, 0x03, 0xbc,
  0x7d, 0xb9, 0xe0, 0xbb, 0xa9, 0xff, 0xe5, 0x3d, 0xb0, 0x1d, 0xa6, 0xbd,
  0x9e, 0x62, 0x7a, 0xbe, 0xcb, 0x73, 0x34, 0xbe, 0x19, 0x11, 0xb2, 0xbd,
  0x36, 0xb7, 0x21, 0x3d, 0x88, 0x6c, 0x28, 0xbc, 0x99, 0x0c, 0x2d, 0xbd,
  0xfe, 0x5a, 0xdd, 0xbc, 0x08, 0x57, 0x96, 0x3d, 0x0d, 0xc4, 0x99, 0xbd,
  0x62, 0x9c, 0x7d, 0xbe, 0x7d, 0x52, 0xcd, 0x3d, 0xad, 0x2e, 0x0e, 0xbe,
  0xc2, 0xcd, 0x52, 0xbe, 0x04, 0xe1, 0xa8, 0x3c, 0x11, 0xe5, 0xd7, 0xbd,
  0x0a, 0x71, 0x51, 0xbe, 0xa9, 0xe8, 0x4a, 0xbe, 0x3e, 0x64, 0x10, 0xbe,
  0xa7, 0xbb, 0x51, 0xbc, 0xf5, 0xff, 0x33, 0x3d, 0xd0, 0x6e, 0x43, 0xbe,
  0x21, 0xe8, 0xd7, 0xbd, 0xd4, 0xf5, 0x5d, 0xbe, 0xdd, 0xab, 0x94, 0xbe,
  0x13, 0x9a, 0x18, 0x3e, 0x83, 0x29, 0xba, 0x3d, 0x31, 0xf0, 0xaf, 0x3e,
  0x10, 0x85, 0x90, 0xbd, 0x10, 0x95, 0x23, 0x3e, 0x74, 0x49, 0xbd, 0xbd,
  0x3d, 0x08, 0x26, 0xbe, 0xe5, 0x1c, 0x21, 0xbb, 0xbc, 0x20, 0xe3, 0x3d,
  0x5b, 0xa2, 0xc8, 0xbd, 0x52, 0x2b, 0x68, 0xbe, 0x46, 0x37, 0x35, 0x3e,
  0x78, 0xe5, 0x28, 0x3d, 0x52, 0x9a, 0x52, 0x3d, 0xf3, 0x20, 0x74, 0xbd,
  0x80, 0xe2, 0x92, 0xbe, 0x4f, 0xcc, 0xd3, 0xbd, 0x1a, 0x5f, 0x35, 0xbe,
  0x83, 0xb5, 0x90, 0xbd, 0x41, 0xc5, 0x9a, 0x3e, 0x77, 0xcb, 0x9c, 0x3d,
  0xbd, 0x40, 0x96, 0x3e, 0xb4, 0xc7, 0x20, 0x3f, 0x42, 0x07, 0x91, 0x3e,
  0x6f, 0xe0, 0x05, 0x3e, 0xd3, 0xfd, 0x34, 0x3e, 0xa2, 0x58, 0xaa, 0x3e,
  0x86, 0x3b, 0x65, 0x3e, 0xb9, 0x1d, 0xca, 0x3c, 0xa9, 0x04, 0xab, 0x3d,
  0xb0, 0x59, 0x4e, 0x3e, 0x09, 0x56, 0xdf, 0xbc, 0x0f, 0x8c, 0x47, 0x3e,
  0x49, 0x15, 0xde, 0x3d, 0x22, 0x7c, 0xfa, 0x3d, 0xbb, 0x56, 0xc6, 0x3d,
  0x7f, 0x33, 0xf4, 0x3d, 0x1e, 0x90, 0x0c, 0x3e, 0x5d, 0xc6, 0x67, 0x3e,
  0xbc, 0x50, 0x54, 0x3e, 0xa2, 0xaf, 0x33, 0x3d, 0x08, 0x76, 0x47, 0x3e,
  0xed, 0xf1, 0xcb, 0xbc, 0x60, 0xf3, 0x56, 0x3e, 0xba, 0x78, 0x6e, 0x3e,
  0xa4, 0x48, 0x77, 0x3e, 0x4a, 0x93, 0x5d, 0xbc, 0xca, 0xf7, 0x99, 0xbd,
  0x6e, 0xd6, 0x21, 0x3e, 0x16, 0xb0, 0xcd, 0xbd, 0x67, 0xae, 0x1e, 0x3e,
  0x40, 0x1f, 0xb1, 0x3e, 0xf5, 0xd2, 0xdd, 0x3d, 0x1e, 0xa5, 0x25, 0x3b,
  0x03, 0x2d, 0x31, 0x3c, 0x8f, 0xf6, 0x6f, 0x3e, 0x20, 0xaa, 0x88, 0x3d,
  0xf9, 0x2e, 0x11, 0x3c, 0xe1, 0x50, 0x62, 0x3e, 0x2e, 0xec, 0xaa, 0x3d,
  0xca, 0x6d, 0x15, 0x3d, 0x0f, 0xc3, 0xcb, 0x3e, 0x68, 0x28, 0x13, 0xbc,
  0xc0, 0xbf, 0xcc, 0xbd, 0x0c, 0x2a, 0xd1, 0x3e, 0x39, 0x3d, 0x36, 0x3d,
  0x9d, 0xab, 0x8b, 0xbd, 0xac, 0x1e, 0x4e, 0x3e, 0xac, 0xa3, 0xbd, 0x39,
  0x2f, 0x04, 0x49, 0x3e, 0xc0, 0xe6, 0xfc, 0x3b, 0x7e, 0x05, 0x90, 0xbe,
  0xf9, 0x52, 0xf4, 0xbd, 0x54, 0xe7, 0x1e, 0xbe, 0xc0, 0x1c, 0x8f, 0x3e,
  0xab, 0xd8, 0x30, 0xbe, 0x62, 0x30, 0xe0, 0x3e, 0xd4, 0x32, 0xd0, 0x3d,
  0x58, 0x2e, 0xb8, 0x3b, 0xff, 0xd0, 0x28, 0xbe, 0xd1, 0x04, 0xe5, 0xbc,
  0xbd, 0xc2, 0x57, 0xbd, 0xc9, 0xcc, 0xe3, 0xbd, 0xee, 0x79, 0xa1, 0xbc,
  0x41, 0x5c, 0x3b, 0xbd, 0x1e, 0x1f, 0x1e, 0x3e, 0x0d, 0xae, 0x81, 0x3e,
  0x24, 0x3f, 0xe3, 0x3d, 0xff, 0x05, 0xd3, 0xbd, 0x54, 0x2f, 0xa1, 0xbe,
  0x64, 0xf9, 0x0b, 0x3e, 0xf6, 0x6f, 0x4e, 0xbe, 0x04, 0x8b, 0x88, 0xbe,
  0x9f, 0xe8, 0x48, 0x3e, 0x7c, 0x3e, 0xf9, 0xbd, 0xcd, 0x5c, 0x42, 0x3e,
  0xf1, 0xd7, 0x59, 0xbe, 0x34, 0xfb, 0x94, 0x3e, 0xd9, 0xc0, 0x8b, 0xbc,
  0x6a, 0x35, 0x19, 0x3e, 0xda, 0x56, 0xfe, 0xbd, 0x25, 0x6d, 0x9e, 0x3d,
  0xd4, 0x26, 0xe6, 0xbd, 0x40, 0xd8, 0x10, 0xbe, 0x00, 0x3b, 0x1d, 0xbd,
  0xdb, 0xac, 0x21, 0xbe, 0x4d, 0xbc, 0xb1, 0xbe, 0x49, 0xee, 0x3b, 0xbe,
  0x7d, 0x6c, 0xd0, 0xbd, 0xbd, 0xe6, 0x8a, 0x3e, 0x60, 0xe9, 0xe9, 0xbc,
  0x24, 0xe8, 0x16, 0xbe, 0xf1, 0x5b, 0x98, 0x3e, 0x0c, 0xf1, 0x2a, 0x3e,
  0x50, 0x54, 0xc4, 0x3e, 0xeb, 0x4d, 0x90, 0x3d, 0x66, 0x9b, 0x70, 0x3e,
  0x65, 0x11, 0xa7, 0xbe, 0x0f, 0xf2, 0x04, 0xbe, 0x2e, 0x66, 0x93, 0xbe,
  0x61, 0xe3, 0x02, 0xbe, 0x59, 0xc4, 0x38, 0xbe, 0x6f, 0x46, 0x99, 0x3d,
  0x59, 0x18, 0x47, 0xbd, 0x13, 0x54, 0xe8, 0xbc, 0xb2, 0x50, 0xaf, 0x3e,
  0xbc, 0x2e, 0x39, 0xbe, 0x33, 0x7c, 0x60, 0xbe, 0xc7, 0x33, 0x00, 0xbe,
  0x60, 0x74, 0x70, 0xbd, 0xb3, 0x32, 0x64, 0x3d, 0xdd, 0x76, 0x56, 0x3d,
  0x10, 0x77, 0x16, 0x3e, 0xb7, 0x86, 0x29, 0x3e, 0xdb, 0xd7, 0x78, 0x3e,
  0xce, 0x7e, 0x18, 0x3d, 0x83, 0xad, 0x0a, 0xbe, 0x91, 0xf4, 0x7c, 0xbe,
  0xdd, 0x68, 0x61, 0x3e, 0x61, 0x41, 0x38, 0x3e, 0xd0, 0xc0, 0x88, 0x3d,
  0xf5, 0x35, 0x51, 0x3e, 0xb0, 0xa8, 0x26, 0x3e, 0x05, 0xbc, 0x99, 0xbd,
  0x57, 0x34, 0x0c, 0x3e, 0x95, 0x2c, 0x49, 0xbe, 0x72, 0x88, 0x38, 0xbe,
  0x84, 0xcd, 0x13, 0x3e, 0xae, 0x95, 0x8f, 0xbe, 0xd3, 0x70, 0x8d, 0x3e,
  0x1c, 0x2c, 0x92, 0xbc, 0x5b, 0x76, 0x87, 0x3e, 0x46, 0x08, 0x47, 0xbe,
  0xa5, 0x76, 0x51, 0xbd, 0x17, 0x97, 0x6e, 0x3e, 0x9a, 0xbe, 0x23, 0xbe,
  0x32, 0x97, 0xe0, 0x3e, 0x59, 0x41, 0xa7, 0x3e, 0x02, 0x5e, 0xd8, 0xbd,
  0xbe, 0xe1, 0x7a, 0xbe, 0x87, 0xae, 0xbb, 0x3e, 0x2c, 0xcd, 0x84, 0xb9,
  0x41, 0xb9, 0x35, 0x3e, 0x5b, 0x1e, 0x0e, 0x3e, 0x4f, 0x79, 0xc9, 0x3d,
  0xe6, 0x8b, 0xb8, 0x3d, 0x0b, 0x72, 0x43, 0xbe, 0xf0, 0x19, 0x33, 0x3e,
  0x06, 0x17, 0xaa, 0xbc, 0xbf, 0x9d, 0xc8, 0x3d, 0x38, 0x19, 0xc5, 0x3e,
  0x2c, 0xee, 0x98, 0x3c, 0x57, 0x9d, 0xc1, 0x3e, 0x49, 0x9c, 0xba, 0x3e,
  0xe8, 0xc4, 0xb0, 0xbd, 0xd1, 0x1e, 0xf1, 0xbd, 0xfe, 0xef, 0xad, 0x3d,
  0xf2, 0xc5, 0xaa, 0x3d, 0x62, 0x44, 0xdf, 0x3b, 0xb0, 0x0c, 0x4d, 0xbd,
  0x35, 0xd5, 0x71, 0x3e, 0xd5, 0xbe, 0x33, 0x3e, 0x5b, 0xe5, 0x56, 0x3e,
  0x32, 0xa2, 0x66, 0x3e, 0x2c, 0x3c, 0xb6, 0x3d, 0x63, 0x44, 0x1b, 0x3e,
  0x4d, 0x59, 0x08, 0x3c, 0xdc, 0xb8, 0x8a, 0x3e, 0x44, 0x24, 0xd8, 0x3d,
  0xf3, 0xce, 0x04, 0x3f, 0x76, 0x33, 0x30, 0x3e, 0x1d, 0xfc, 0x2c, 0x3c,
  0x39, 0x19, 0x93, 0x3d, 0x7c, 0x07, 0xaf, 0xbd, 0xeb, 0x7e, 0x71, 0x3b,
  0xb2, 0x96, 0x7b, 0x3d, 0x45, 0x51, 0x14, 0x3e, 0x1b, 0xef, 0x8a, 0x3e,
  0x9e, 0x49, 0x54, 0x3e, 0x71, 0x0c, 0x4f, 0x3e, 0xd8, 0xab, 0x3a, 0xbe,
  0xcc, 0x49, 0x79, 0x3e, 0x8b, 0xc3, 0x68, 0x3e, 0x17, 0x49, 0x77, 0x3e,
  0xc6, 0xb4, 0xf9, 0xbd, 0x02, 0xed, 0xa9, 0x3e, 0xef, 0x05, 0xc5, 0xbd,
  0xce, 0x64, 0x28, 0x3d, 0xbd, 0xf0, 0xf4, 0xbd, 0x9c, 0x28, 0x74, 0x3e,
  0xcd, 0x7a, 0x8e, 0x3d, 0x20, 0x4d, 0x73, 0x3d, 0xd2, 0xb9, 0x92, 0xbd,
  0x9a, 0xce, 0xaa, 0x3c, 0xd0, 0xd4, 0xa8, 0xbd, 0x96, 0x15, 0xda, 0xbd,
  0x8b, 0x3c, 0x39, 0xbe, 0xe3, 0xa3, 0xef, 0xbc, 0xc7, 0x42, 0x7b, 0xbe,
  0xa3, 0xe4, 0xc5, 0xbd, 0xd2, 0x11, 0xb3, 0x3e, 0xfa, 0x60, 0xc5, 0x3c,
  0x5a, 0x13, 0x82, 0x3e, 0xc8, 0x76, 0x41, 0x3d, 0xe9, 0xce, 0x68, 0xbe,
  0xa2, 0x37, 0xfb, 0xbd, 0xf7, 0xc4, 0x02, 0xbf, 0x6d, 0x13, 0x07, 0x3e,
  0x37, 0x03, 0x0b, 0xbe, 0x4c, 0xec, 0x3e, 0xbc, 0xc0, 0x7c, 0x6c, 0x3e,
  0xde, 0x07, 0x4e, 0x3d, 0x52, 0xe8, 0xc1, 0xbd, 0x5b, 0x33, 0xaf, 0xbd,
  0x3e, 0x82, 0xe0, 0x3e, 0xe3, 0x1d, 0x19, 0xbe, 0xb2, 0xa9, 0xcb, 0xbe,
  0x02, 0x9f, 0x52, 0x3d, 0x8b, 0x92, 0x1c, 0x3e, 0xe5, 0x76, 0xc3, 0xbd,
  0xc2, 0x81, 0xbf, 0xbd, 0x33, 0xa3, 0x69, 0x3b, 0xfa, 0x4a, 0x8a, 0x3d,
  0x01, 0xcd, 0x76, 0xbe, 0xd2, 0x0f, 0x77, 0xbe, 0x19, 0xdf, 0xe3, 0xbe,
  0x24, 0xd2, 0xe4, 0xbe, 0xc8, 0xa0, 0xc7, 0xbc, 0x5a, 0xf9, 0xab, 0xbd,
  0x9e, 0x30, 0x51, 0xbe, 0x37, 0x6d, 0x2a, 0x3d, 0xc3, 0x17, 0x53, 0xbd,
  0xee, 0xcd, 0x38, 0xbe, 0xdd, 0x08, 0xf0, 0x3d, 0x13, 0x97, 0xc4, 0x3d,
  0x57, 0xaa, 0x40, 0xbe, 0x74, 0xa7, 0x50, 0xbc, 0x13, 0x3d, 0xa1, 0x3e,
  0x9a, 0x5a, 0xaa, 0x3e, 0x48, 0x03, 0x09, 0x3e, 0xc6, 0x30, 0x67, 0x3e,
  0xe9, 0x37, 0xe6, 0x3a, 0x31, 0xd7, 0x29, 0xbe, 0xad, 0xd8, 0xb0, 0xbd,
  0xb4, 0xe1, 0x91, 0xbd, 0x2c, 0x28, 0x3f, 0xbe, 0x60, 0x44, 0x8d, 0xbe,
  0xcd, 0x66, 0x0c, 0xbd, 0x8b, 0xb6, 0x14, 0x3d, 0x7f, 0x96, 0xae, 0xbc,
  0x56, 0xc7, 0xdc, 0x3d, 0x8d, 0x03, 0xad, 0xbd, 0x47, 0xa8, 0xbd, 0xbd,
  0xb5, 0x11, 0x56, 0x3e, 0xae, 0xd1, 0xa0, 0x3b, 0x24, 0xaa, 0xdf, 0xbd,
  0x33, 0x85, 0x80, 0xbd, 0x79, 0xc2, 0x64, 0xbd, 0x1b, 0x59, 0x2c, 0xbe,
  0xdc, 0xda, 0xde, 0xbd, 0x84, 0xfc, 0xb5, 0xbb, 0x84, 0xbb, 0x60, 0xbd,
  0x0c, 0x1b, 0x4b, 0x3d, 0xbd, 0xb4, 0xd4, 0xbd, 0xb4, 0x9e, 0x23, 0xbd,
  0x25, 0xcd, 0xd8, 0xbd, 0x9a, 0x27, 0x26, 0x3e, 0x6d, 0xf5, 0x55, 0xbe,
  0xe8, 0x08, 0x24, 0xbe, 0x61, 0x53, 0xe2, 0x3d, 0x70, 0xc5, 0x4e, 0x3e,
  0xde, 0xa2, 0x9d, 0x3d, 0x0f, 0xf5, 0x0a, 0x3e, 0x4b, 0xc3, 0x92, 0xbd,
  0x28, 0xdc, 0x68, 0xbe, 0x2a, 0xdd, 0x9d, 0xba, 0x5f, 0xc9, 0x90, 0xbd,
  0xdb, 0x2a, 0x61, 0xbe, 0x03, 0xf1, 0x16, 0x3c, 0x8e, 0x59, 0x50, 0xbe,
  0x4a, 0x52, 0x0e, 0xbe, 0xc7, 0x11, 0xdf, 0x3c, 0xfe, 0x95, 0x52, 0xbd,
  0xfe, 0xb8, 0x96, 0x3e, 0x13, 0x75, 0x2b, 0x3e, 0xb6, 0x57, 0x1e, 0x3e,
  0xc5, 0x30, 0xd0, 0x3d, 0xcf, 0x2d, 0x02, 0xbe, 0x42, 0xd9, 0x23, 0x3d,
  0x97, 0x9e, 0xe2, 0x3e, 0xe6, 0xe6, 0xc3, 0xbd, 0x6e, 0x5b, 0x1a, 0xbe,
  0x3f, 0x63, 0x87, 0xbd, 0xb8, 0xf2, 0xba, 0xbe, 0xb4, 0xc6, 0x9c, 0x3d,
  0xa2, 0xcd, 0x85, 0xbe, 0x28, 0xf6, 0x88, 0x3d, 0x71, 0x5d, 0xe5, 0x3d,
  0xbe, 0x92, 0x03, 0x3f, 0xf7, 0xe9, 0x41, 0xbe, 0x70, 0xc3, 0xa3, 0x3e,
  0xf9, 0xc6, 0x09, 0x3e, 0x57, 0x2d, 0x84, 0xbe, 0x38, 0x67, 0x7d, 0x3e,
  0x47, 0x75, 0x52, 0xbe, 0xf1, 0x72, 0x0a, 0xbe, 0x94, 0x4c, 0xbf, 0xbd,
  0xab, 0x57, 0x0a, 0x3d, 0x74, 0x9f, 0x6f, 0x3d, 0x08, 0x25, 0xbc, 0x3d,
  0x7d, 0xf9, 0xac, 0xbd, 0x7e, 0x52, 0x97, 0xbe, 0x6b, 0xd9, 0xac, 0xbe,
  0x55, 0x34, 0x9c, 0x3e, 0xcc, 0xdd, 0xd0, 0xbe, 0x6c, 0xc8, 0x24, 0xbe,
  0x40, 0x3c, 0x6b, 0x3e, 0x8a, 0x82, 0xba, 0x3e, 0x2f, 0x02, 0x5a, 0x3e,
  0x44, 0x3b, 0xef, 0xbb, 0x4e, 0x87, 0xca, 0xbd, 0x34, 0xa2, 0xac, 0xbe,
  0x29, 0xec, 0x2d, 0xbe, 0xe1, 0xbb, 0xd0, 0xbd, 0xa6, 0x19, 0x9e, 0x3d,
  0x75, 0x4e, 0xca, 0xbd, 0x71, 0x87, 0x21, 0xbe, 0x62, 0xca, 0xf7, 0x3c,
  0xf5, 0x4e, 0xa6, 0x3e, 0x78, 0xcb, 0x79, 0xbe, 0xbc, 0x88, 0xa1, 0x3e,
  0x55, 0xfc, 0x68, 0xbe, 0x1a, 0xbe, 0x96, 0x3b, 0x3a, 0x87, 0xfc, 0xbd,
  0x21, 0x50, 0x96, 0x3d, 0x9c, 0x23, 0x91, 0x3e, 0x0a, 0xd6, 0xa9, 0x3d,
  0x43, 0x8e, 0x5f, 0x3e, 0xd0, 0xa6, 0xe3, 0x3d, 0x65, 0xfc, 0x80, 0x3d,
  0x6e, 0xe2, 0x71, 0x39, 0x48, 0x55, 0xc1, 0x3d, 0xcc, 0x82, 0x94, 0x3e,
  0x82, 0xa5, 0x40, 0xbd, 0xf2, 0xbf, 0x9f, 0x3e, 0xb5, 0x1d, 0x48, 0x3d,
  0xd5, 0x73, 0x34, 0x3e, 0x91, 0x0b, 0x85, 0xbe, 0x09, 0xee, 0xa1, 0x3e,
  0x25, 0x0c, 0xfb, 0xbd, 0xab, 0xc2, 0x76, 0xbd, 0xf1, 0xe1, 0x07, 0x3d,
  0xae, 0x75, 0x35, 0x3e, 0x0f, 0x01, 0xc4, 0x3e, 0x4b, 0x3b, 0x62, 0x3e,
  0x97, 0x1a, 0x27, 0x3e, 0x2e, 0xef, 0x91, 0xbd, 0xfc, 0xee, 0x23, 0x3d,
  0x55, 0x62, 0x9f, 0xbd, 0xe7, 0x83, 0xa1, 0xbd, 0x59, 0x9d, 0x0b, 0x3e,
  0x6b, 0xa7, 0x25, 0x3c, 0xc7, 0xe2, 0xa7, 0x3e, 0xef, 0xf6, 0x25, 0xbe,
  0xc5, 0x92, 0xa2, 0x3e, 0x4d, 0x79, 0xf9, 0xbd, 0x89, 0x22, 0xd1, 0xbd,
  0xe3, 0xac, 0x89, 0x3e, 0x7d, 0x58, 0x16, 0x3e, 0x76, 0xba, 0xac, 0x3e,
  0x0f, 0x61, 0x29, 0x3e, 0x5e, 0xef, 0x06, 0x3e, 0x82, 0x8a, 0x0b, 0x3e,
  0x27, 0x9d, 0xbb, 0x3d, 0x8b, 0x90, 0x3a, 0x3d, 0xdb, 0xf7, 0xb2, 0x3d,
  0x6f, 0xe1, 0x02, 0x3e, 0x98, 0xf9, 0x45, 0x3d, 0xa6, 0xb6, 0x06, 0x3e,
  0xcf, 0xbe, 0x51, 0xbe, 0x5b, 0x66, 0x77, 0x3e, 0xe6, 0x3f, 0x87, 0x3d,
  0x9e, 0x0e, 0xef, 0xbb, 0x17, 0xba, 0x94, 0x3e, 0xf2, 0xc5, 0x87, 0x3e,
  0xd3, 0x4f, 0x7d, 0x3e, 0x2d, 0xd2, 0x9e, 0x3e, 0x7e, 0xda, 0xa2, 0x3e,
  0x42, 0x86, 0x3c, 0x3e, 0x30, 0x2a, 0x34, 0x3e, 0x5f, 0x01, 0xa0, 0x3e,
  0x2b, 0xd7, 0x24, 0x3e, 0xbb, 0x06, 0x7a, 0x3e, 0x2a, 0x49, 0xa5, 0x3e,
  0xa7, 0x2f, 0x1b, 0x3e, 0x6f, 0x47, 0x82, 0xbe, 0x41, 0x92, 0xfa, 0xbd,
  0x6e, 0x04, 0x8f, 0x39, 0x89, 0xa6, 0x32, 0x3e, 0x01, 0x5b, 0xa5, 0x3e,
  0xc3, 0x83, 0x9b, 0x3e, 0x56, 0x2d, 0x10, 0xbe, 0x16, 0xf0, 0xb1, 0x3e,
  0x58, 0x8f, 0xbc, 0x3e, 0xc8, 0xaf, 0xb4, 0x3d, 0x59, 0xf9, 0x61, 0x3e,
  0x97, 0xfd, 0x7d, 0x3e, 0x8e, 0xad, 0x1b, 0xbc, 0x8b, 0x8c, 0xac, 0xbe,
  0x7a, 0x2b, 0xe5, 0x3c, 0x61, 0x8c, 0x17, 0xbe, 0xd3, 0xe9, 0xd4, 0x3e,
  0x19, 0xff, 0xd6, 0xbe, 0x7d, 0x51, 0x8f, 0x3e, 0x4f, 0x55, 0x1d, 0x3e,
  0xfb, 0x70, 0x87, 0x3d, 0x93, 0x9c, 0x0d, 0x3e, 0x15, 0x3a, 0x58, 0x3e,
  0xec, 0xf1, 0xe4, 0x3c, 0x8d, 0x6a, 0x1e, 0xbe, 0x4d, 0x6e, 0x30, 0xbd,
  0xb5, 0xe2, 0x87, 0xbd, 0xcf, 0xe8, 0xdb, 0xbe, 0x2b, 0x95, 0xdc, 0x3c,
  0x4b, 0xce, 0x9a, 0x3e, 0xe3, 0xd8, 0xbd, 0x3d, 0x1a, 0x76, 0xc2, 0x3e,
  0x23, 0xef, 0x8a, 0x3f, 0x0a, 0xe1, 0x94, 0x3c, 0x6a, 0xd1, 0x03, 0x3e,
  0xf2, 0xa5, 0xa0, 0xbe, 0xa0, 0x5e, 0x93, 0x3e, 0x1a, 0xc7, 0x83, 0xbe,
  0x68, 0xb6, 0x80, 0x3e, 0xfe, 0x7f, 0x23, 0xbe, 0xd4, 0x06, 0x2f, 0x3e,
  0x87, 0x0c, 0xa4, 0xbe, 0x35, 0x5a, 0x6a, 0x3b, 0x49, 0x34, 0x88, 0x3e,
  0x30, 0xb3, 0x0b, 0xbe, 0x51, 0x27, 0xa1, 0xbe, 0xb2, 0x7a, 0xce, 0x3d,
  0xa4, 0x0f, 0x24, 0x3e, 0x8a, 0x13, 0x3a, 0x3f, 0xdc, 0x68, 0xb5, 0x3c,
  0xda, 0xaa, 0x2e, 0x3d, 0x83, 0x58, 0x2d, 0x3f, 0x7f, 0x5a, 0x12, 0xbe,
  0x20, 0xab, 0x93, 0xbe, 0x0a, 0xb3, 0xbb, 0xbd, 0x30, 0x74, 0x66, 0xbe,
  0xe5, 0xbb, 0x12, 0x3e, 0x6c, 0x29, 0x9c, 0xbd, 0x75, 0x6c, 0x31, 0xbe,
  0xd6, 0x91, 0xf9, 0xbd, 0x11, 0x2d, 0xaf, 0xbd, 0xcc, 0x0b, 0x95, 0x3d,
  0x73, 0x32, 0x8d, 0x3e, 0x69, 0x61, 0x11, 0x3e, 0x92, 0x8c, 0x25, 0x3f,
  0xe3, 0x07, 0x1c, 0x3d, 0x1c, 0x5c, 0x98, 0x3e, 0x9f, 0x83, 0x3d, 0x3f,
  0x0c, 0xf2, 0x0c, 0xbe, 0x00, 0x80, 0x8b, 0x3d, 0x8a, 0xc3, 0xf3, 0xbd,
  0x2b, 0x47, 0x25, 0x3e, 0x31, 0xce, 0x40, 0xbe, 0x31, 0x2d, 0xa7, 0xbd,
  0x12, 0xd7, 0xb6, 0xbd, 0xf4, 0x82, 0x4c, 0x3e, 0x09, 0xda, 0x21, 0xbc,
  0xa7, 0x4b, 0x9f, 0x3d, 0x91, 0x12, 0x38, 0xbe, 0x85, 0x63, 0xc3, 0xbc,
  0x69, 0x26, 0x39, 0x3f, 0xc0, 0x62, 0xb7, 0x3c, 0xf1, 0x08, 0x85, 0x3e,
  0x1c, 0xca, 0x38, 0x3f, 0x2c, 0xf2, 0xad, 0x3c, 0xfa, 0x4e, 0x14, 0xbd,
  0xd0, 0x0c, 0xb6, 0xbd, 0x3a, 0x38, 0x4c, 0xbd, 0xf6, 0x1e, 0x79, 0x3d,
  0x66, 0x49, 0x62, 0x3d, 0xf4, 0x98, 0x04, 0xbe, 0xa9, 0x50, 0x5b, 0xbe,
  0xeb, 0xdd, 0x3c, 0xbe, 0xcb, 0x33, 0xff, 0x3d, 0x56, 0xde, 0x40, 0xbe,
  0x6d, 0xa0, 0xba, 0xbd, 0x1d, 0x22, 0x47, 0x3f, 0xf5, 0xd9, 0xfe, 0x3d,
  0x30, 0xc4, 0xe9, 0xbd, 0x38, 0x21, 0x51, 0x3f, 0x66, 0xfb, 0x2e, 0xbe,
  0x86, 0x59, 0xbb, 0x3b, 0x50, 0xa5, 0x90, 0xbe, 0xdd, 0x96, 0x79, 0xbd,
  0x50, 0xd8, 0x03, 0x3d, 0x96, 0x27, 0x12, 0xbe, 0x1c, 0x8a, 0xfb, 0x3c,
  0x4d, 0x3b, 0x12, 0xbe, 0xac, 0xd2, 0xcd, 0x3c, 0x09, 0x7d, 0xda, 0x3d,
  0x13, 0xac, 0xdc, 0xbd, 0x5f, 0x06, 0x10, 0x3e, 0xf1, 0xe4, 0x4d, 0x3f,
  0x76, 0xa4, 0x7b, 0x3e, 0xfc, 0x0f, 0x11, 0x3d, 0x31, 0x42, 0x81, 0xbe,
  0x6c, 0x94, 0x8c, 0x3d, 0xad, 0x8a, 0x9e, 0x3d, 0xed, 0x5e, 0xa6, 0x3d,
  0xfc, 0x9e, 0xad, 0x3d, 0x33, 0xc8, 0x6d, 0xbe, 0x5b, 0x9c, 0x16, 0xbe,
  0xa5, 0x16, 0x12, 0xbe, 0x4c, 0xb9, 0xfe, 0x3d, 0xdd, 0x9d, 0x8f, 0xbd,
  0x06, 0x20, 0x25, 0xbd, 0x32, 0x02, 0x8a, 0xbe, 0xb4, 0x5f, 0xf9, 0x3d,
  0xf3, 0x46, 0xd4, 0x3e, 0xb1, 0x2e, 0x50, 0x3e, 0x1e, 0x04, 0x9c, 0x3c,
  0x1a, 0x55, 0xf3, 0xbd, 0x12, 0x9f, 0x2b, 0x3e, 0xd4, 0x7c, 0x3a, 0xbe,
  0x69, 0x0e, 0xc7, 0x3c, 0x40, 0xa5, 0x75, 0x3e, 0x17, 0x75, 0x12, 0x3e,
  0x12, 0xb0, 0x8c, 0x3d, 0x42, 0x99, 0x6e, 0xbd, 0x1d, 0x0a, 0x1f, 0x3e,
  0x56, 0xc7, 0xe7, 0xbc, 0x18, 0x89, 0xdd, 0xbe, 0xd0, 0xc1, 0x0a, 0x3e,
  0x5f, 0xc0, 0x70, 0xbe, 0x5d, 0x7a, 0xc4, 0xbe, 0x63, 0xcc, 0x0a, 0x3e,
  0x33, 0xc4, 0x87, 0x3e, 0x1b, 0x50, 0xf5, 0x3e, 0x08, 0x5d, 0x3f, 0xbe,
  0xad, 0x9d, 0x96, 0xbd, 0x3b, 0xab, 0xb8, 0xbe, 0x86, 0x50, 0x89, 0xbe,
  0xf4, 0x4e, 0x71, 0xbe, 0x4f, 0xe2, 0x12, 0x3e, 0xec, 0x0f, 0xcf, 0xbd,
  0x16, 0xb0, 0x74, 0xbe, 0x03, 0x04, 0xe0, 0xbd, 0xa9, 0xf5, 0xbe, 0x3e,
  0x12, 0x8c, 0xa4, 0x3e, 0x8d, 0x5c, 0xff, 0x3d, 0x99, 0x5a, 0x9c, 0xbe,
  0xcd, 0x58, 0xd0, 0x3d, 0x2f, 0x96, 0x05, 0xbe, 0xea, 0x42, 0xe6, 0x3d,
  0x51, 0x63, 0xec, 0x3d, 0xe8, 0x2e, 0xab, 0xbd, 0x0a, 0x90, 0x4b, 0x3e,
  0x63, 0xa2, 0x05, 0x3d, 0x12, 0x5d, 0xdf, 0x3d, 0xb5, 0xdf, 0xac, 0x3d,
  0xae, 0xf6, 0x88, 0x3e, 0x7d, 0x4a, 0xdb, 0x3d, 0x75, 0x1b, 0x24, 0xbb,
  0x47, 0xc3, 0xa5, 0x3e, 0x35, 0x13, 0xde, 0x3d, 0xb9, 0x7e, 0x70, 0xbd,
  0x34, 0xde, 0x9c, 0xbe, 0x9a, 0x7d, 0x0b, 0xbe, 0x93, 0x9a, 0x85, 0xbc,
  0x60, 0x6d, 0x99, 0x3c, 0x0d, 0x19, 0x9d, 0x3d, 0xd7, 0x23, 0xc1, 0xbd,
  0x69, 0xd3, 0xa1, 0x3e, 0x06, 0x2f, 0x2e, 0x3e, 0xb0, 0x51, 0xae, 0x3e,
  0x7d, 0x20, 0xef, 0x3c, 0xea, 0x88, 0x20, 0x3e, 0x24, 0x9d, 0x78, 0x3d,
  0x3c, 0x78, 0xbf, 0x3c, 0xb4, 0x8c, 0x57, 0x3e, 0x9d, 0xa3, 0xbd, 0x3d,
  0x4b, 0x62, 0x21, 0x3e, 0x48, 0xd0, 0xb5, 0xbe, 0x64, 0x00, 0x83, 0x3e,
  0x6d, 0xc0, 0x0d, 0xbe, 0xf4, 0xd6, 0xd4, 0xbc, 0xef, 0x67, 0x06, 0x3f,
  0x14, 0xd3, 0x13, 0x3e, 0xf2, 0x8c, 0x8d, 0x3e, 0x6d, 0x61, 0x92, 0x3d,
  0xad, 0xbc, 0x83, 0x3e, 0x2f, 0x5e, 0x3e, 0x3d, 0xba, 0xe7, 0x21, 0x3e,
  0xb4, 0x6f, 0x35, 0x3e, 0x1f, 0x9a, 0xa7, 0xbd, 0x62, 0x64, 0x97, 0x3e,
  0x19, 0x5d, 0x8a, 0x3e, 0xff, 0x62, 0x11, 0x3d, 0x34, 0xd8, 0xdd, 0xbd,
  0x9d, 0xe0, 0x86, 0x3d, 0x1c, 0x41, 0x5b, 0xbd, 0x67, 0x3b, 0xf7, 0x3c,
  0xf1, 0x0a, 0xc4, 0x3e, 0xa7, 0x7b, 0xff, 0x3d, 0x80, 0xb6, 0x3a, 0x3e,
  0x6a, 0x3e, 0x14, 0x3e, 0xba, 0xbf, 0x60, 0x3e, 0x8e, 0xf3, 0xd1, 0x3c,
  0x1b, 0xd3, 0x52, 0x3e, 0x87, 0xaa, 0x98, 0x3e, 0xb9, 0xbd, 0xd5, 0x3d,
  0x34, 0x1f, 0x41, 0x3e, 0xdc, 0x84, 0x53, 0x3e, 0x9d, 0xe3, 0x6a, 0x3d,
  0xcd, 0xaf, 0x31, 0xbe, 0x5c, 0x31, 0x3f, 0xbc, 0x49, 0x7f, 0xad, 0xbe,
  0x54, 0xfe, 0xd7, 0x3e, 0x68, 0xc2, 0xec, 0x3e, 0xd1, 0x4e, 0xc3, 0x3e,
  0x52, 0xcc, 0x81, 0x3c, 0xf4, 0x91, 0x9a, 0x3e, 0xc0, 0x07, 0x66, 0x3e,
  0x0f, 0xdc, 0x22, 0x3e, 0xc3, 0xf3, 0x82, 0xbd, 0x2f, 0x98, 0xa3, 0x3d,
  0x90, 0xf2, 0x2c, 0x3d, 0x26, 0x62, 0x8f, 0xbe, 0x54, 0xcf, 0xf2, 0xbd,
  0x98, 0xd1, 0x48, 0xbe, 0x9e, 0x6c, 0x35, 0x3e, 0x89, 0x6b, 0xcf, 0xbe,
  0x67, 0xa8, 0x4e, 0x3e, 0x2e, 0xb9, 0x44, 0x3e, 0x01, 0xbc, 0x74, 0xbd,
  0xc0, 0x4f, 0xfb, 0x3b, 0xdb, 0x0d, 0xd5, 0x3e, 0x75, 0x81, 0x6d, 0x3c,
  0x53, 0xe5, 0x27, 0xbe, 0xb8, 0xd0, 0x58, 0xbd, 0x80, 0x98, 0x48, 0xbe,
  0x53, 0x86, 0xea, 0xbe, 0x03, 0x92, 0x2d, 0x3e, 0x17, 0x10, 0x26, 0xbe,
  0x66, 0x00, 0x2e, 0xbe, 0x5b, 0x45, 0x3f, 0xbd, 0x3d, 0xde, 0xe8, 0x3e,
  0x2b, 0x2c, 0xf3, 0x3c, 0xc9, 0x82, 0x3c, 0xbe, 0x83, 0x43, 0x3b, 0x3e,
  0x89, 0x9d, 0x33, 0xbe, 0xe4, 0x11, 0x85, 0xbe, 0x64, 0x9a, 0x9a, 0xbe,
  0xae, 0x66, 0x96, 0x3c, 0x22, 0x5d, 0xdd, 0xbd, 0x14, 0x0d, 0x55, 0xbe,
  0x0a, 0xc0, 0xc3, 0xbe, 0xcc, 0xb1, 0x00, 0xbe, 0xce, 0x74, 0x70, 0xbd,
  0x8d, 0x11, 0x68, 0xbe, 0xe8, 0xc3, 0x86, 0xbe, 0x19, 0xb0, 0x87, 0x3c,
  0x77, 0xd3, 0x4a, 0x3f, 0xad, 0xb8, 0x60, 0xbe, 0xde, 0x47, 0x25, 0x3e,
  0xf9, 0xa1, 0xe1, 0x3e, 0x73, 0x8b, 0xbe, 0x3d, 0xa8, 0xed, 0x80, 0xbe,
  0xd3, 0xc4, 0xb4, 0xbe, 0xb6, 0xf8, 0xa2, 0x3d, 0x42, 0x6a, 0x6a, 0xbd,
  0xbf, 0xc7, 0xa9, 0xbd, 0x27, 0xa0, 0x27, 0xbe, 0xdc, 0x93, 0x65, 0x3d,
  0xb2, 0x51, 0x8c, 0xbe, 0x28, 0x78, 0x0c, 0x3e, 0x61, 0x43, 0x89, 0xbe,
  0x1b, 0x42, 0x10, 0xbe, 0xfe, 0xf5, 0x3e, 0x3f, 0x50, 0xef, 0x4d, 0xbe,
  0xa8, 0x24, 0xf8, 0x3d, 0xf5, 0xf2, 0xe8, 0x3d, 0x17, 0xd0, 0x4d, 0xbe,
  0xd8, 0xea, 0x31, 0xbd, 0x2b, 0x4d, 0xbe, 0xbe, 0xa0, 0x1b, 0x05, 0x3e,
  0x26, 0x01, 0x54, 0x3c, 0x2b, 0xe2, 0xaf, 0xbe, 0xfd, 0x61, 0x57, 0xbd,
  0x77, 0xe8, 0x40, 0xbe, 0xad, 0x26, 0xdf, 0xbd, 0x77, 0x2e, 0x04, 0x3e,
  0x69, 0x96, 0x0c, 0x3e, 0x56, 0xe3, 0x2c, 0x3e, 0xf5, 0x1c, 0x2c, 0x3f,
  0x13, 0x5c, 0xca, 0x3b, 0xe3, 0xd8, 0x6c, 0xbe, 0xf7, 0x65, 0x25, 0x3e,
  0x80, 0xd2, 0x2f, 0xbe, 0x46, 0xae, 0x83, 0xbe, 0x90, 0x1a, 0x42, 0xbe,
  0xf2, 0xb2, 0xc5, 0xbd, 0xa9, 0x4f, 0xcc, 0xbd, 0x36, 0x76, 0x92, 0xbe,
  0x94, 0x2b, 0xe3, 0xbd, 0x8c, 0xab, 0xc1, 0x3d, 0x8e, 0xc1, 0xa0, 0xbc,
  0xab, 0x9e, 0xdc, 0xbb, 0x63, 0x9b, 0x4a, 0xbe, 0x07, 0x5c, 0x2c, 0xbe,
  0x0c, 0xf9, 0x24, 0x3f, 0xd8, 0x74, 0x05, 0xbe, 0x54, 0x55, 0xcd, 0xbd,
  0x4f, 0x45, 0xb1, 0x3e, 0x7b, 0x94, 0x54, 0x3b, 0x7d, 0x1c, 0xaf, 0xbe,
  0x3f, 0x9a, 0x9a, 0xbe, 0xb1, 0xc8, 0xc8, 0x3d, 0x61, 0x78, 0xcf, 0x3d,
  0x39, 0x80, 0x3e, 0xbd, 0x50, 0x5a, 0xa7, 0xbe, 0x45, 0x0f, 0xfc, 0x3c,
  0x06, 0x0a, 0xa1, 0xbe, 0x69, 0x30, 0x7e, 0xbe, 0xcb, 0xc9, 0x1c, 0x3e,
  0xe0, 0xf8, 0xa5, 0xbd, 0x43, 0x69, 0x43, 0x3f, 0x66, 0x43, 0x07, 0x3d,
  0xff, 0x7f, 0x2f, 0xbe, 0x2e, 0x19, 0x39, 0x3e, 0x1c, 0x21, 0x9b, 0x3d,
  0xe5, 0xed, 0x82, 0xbe, 0x51, 0x63, 0x01, 0xbd, 0xe8, 0x18, 0x5d, 0xbe,
  0xd0, 0x27, 0x68, 0xbe, 0x81, 0x53, 0xa7, 0xbe, 0x7f, 0x22, 0xc4, 0xbe,
  0x50, 0x96, 0x73, 0xbd, 0xbc, 0x81, 0x3b, 0xbe, 0x26, 0xb9, 0x21, 0xbe,
  0x6b, 0x8f, 0x06, 0x3e, 0xa4, 0x7e, 0xfd, 0x3c, 0x1d, 0x53, 0xb0, 0x3e,
  0x67, 0xbd, 0xcf, 0x3c, 0x7a, 0xc1, 0x35, 0x3d, 0xcf, 0x8c, 0xdd, 0x3d,
  0xd1, 0x6f, 0x08, 0x3d, 0xd8, 0x65, 0x51, 0xbd, 0x20, 0x41, 0x90, 0xbe,
  0xc4, 0x5e, 0x84, 0xbd, 0x5a, 0x54, 0x94, 0xbe, 0x49, 0xc9, 0xc1, 0xbe,
  0x31, 0x10, 0xcb, 0xbe, 0xee, 0x99, 0x7b, 0xbe, 0x3b, 0x78, 0xce, 0xbb,
  0xef, 0x1f, 0xe5, 0x3e, 0xe1, 0x2e, 0x4f, 0xbd, 0x6f, 0xc9, 0x0c, 0x3e,
  0xca, 0xeb, 0xeb, 0xbc, 0xac, 0x26, 0x4e, 0xbe, 0xd6, 0x86, 0x52, 0xbe,
  0x5b, 0x49, 0x22, 0xbf, 0xb2, 0x82, 0xd8, 0x3e, 0x70, 0x56, 0xcd, 0xbe,
  0x8a, 0x13, 0x0a, 0x3e, 0xa4, 0x64, 0x18, 0x3e, 0x47, 0x8c, 0x2e, 0x3e,
  0x46, 0xb5, 0xdb, 0xbd, 0x59, 0x85, 0x0c, 0x3e, 0xcf, 0x92, 0x45, 0x3e,
  0x8a, 0x60, 0x65, 0xbe, 0x39, 0xcb, 0xc0, 0xbe, 0x6f, 0xaa, 0x0c, 0xbd,
  0x7a, 0x3a, 0x5f, 0xbc, 0x9d, 0xcf, 0x1f, 0xbe, 0x37, 0xec, 0x0a, 0xbe,
  0x30, 0x8c, 0x09, 0xbe, 0xce, 0xdb, 0xfd, 0xbc, 0x16, 0xdd, 0xbc, 0xbe,
  0xf8, 0x1d, 0x59, 0xbe, 0x0f, 0x27, 0xd1, 0xbe, 0xca, 0x7a, 0xf9, 0xbe,
  0xe9, 0x6e, 0x0d, 0xbe, 0x11, 0x09, 0x6b, 0xbd, 0x34, 0x48, 0x89, 0xbe,
  0x4b, 0x7d, 0x26, 0xbe, 0xd6, 0x9a, 0xa3, 0xbe, 0x92, 0x9a, 0xa0, 0x3c,
  0x5f, 0x30, 0x01, 0xbd, 0xcc, 0x89, 0xd2, 0xbc, 0x8c, 0x9e, 0x2d, 0xbe,
  0x05, 0xda, 0xdb, 0xbd, 0xa5, 0x7a, 0x88, 0xbd, 0x85, 0x97, 0x85, 0x3d,
  0x8d, 0xc9, 0x34, 0x3e, 0xf3, 0x06, 0xb3, 0x3d, 0xef, 0x98, 0xf5, 0x3d,
  0xd9, 0x5b, 0x97, 0xbc, 0xd7, 0xa0, 0x89, 0xbd, 0x9f, 0xb3, 0x24, 0xbd,
  0x97, 0x65, 0x35, 0xbe, 0x57, 0x57, 0x29, 0x3c, 0x0d, 0x49, 0x9b, 0xbe,
  0x96, 0x1f, 0xeb, 0xbd, 0xca, 0xc6, 0xc9, 0xbd, 0xb1, 0x8c, 0x2b, 0x3e,
  0xf5, 0x33, 0x42, 0xbe, 0x72, 0xe8, 0xc3, 0x3e, 0x58, 0x00, 0xdc, 0x3d,
  0xbd, 0x1e, 0xf1, 0xbb, 0x5f, 0x57, 0x7e, 0x3e, 0x6a, 0xe1, 0x84, 0xbd,
  0x33, 0xa7, 0xbf, 0xbd, 0xc6, 0x34, 0x7d, 0xbd, 0x92, 0x49, 0x1b, 0x3e,
  0xfd, 0x13, 0xf6, 0x3b, 0x96, 0xce, 0x8b, 0xbd, 0xa2, 0x3f, 0x23, 0xbe,
  0x9f, 0x39, 0x08, 0xbe, 0x44, 0xfa, 0x1f, 0xbe, 0xf9, 0x08, 0xf1, 0xbd,
  0x06, 0xda, 0x83, 0x3d, 0xd3, 0x2f, 0xdd, 0xbd, 0x3a, 0x68, 0xf3, 0x3c,
  0x62, 0x84, 0x43, 0x3e, 0xbb, 0xcc, 0x15, 0x3d, 0xfe, 0x95, 0x97, 0x3c,
  0x02, 0xc5, 0x0b, 0x3e, 0xde, 0xfd, 0x40, 0xbd, 0xc5, 0x86, 0x0c, 0xbe,
  0x07, 0x12, 0x6b, 0x3c, 0x18, 0x96, 0x60, 0x3d, 0xdd, 0xf8, 0xc7, 0x3d,
  0x5f, 0xae, 0x1f, 0x3d, 0x59, 0x3e, 0x26, 0xbd, 0xc0, 0xd4, 0x59, 0xbe,
  0xa5, 0xa9, 0x17, 0x3e, 0xd0, 0x79, 0x95, 0xbc, 0x2c, 0x70, 0xa3, 0xbe,
  0x79, 0x60, 0x19, 0x3e, 0x2e, 0x53, 0x9a, 0x3d, 0x87, 0x90, 0x6d, 0x3c,
  0xd4, 0xb7, 0x54, 0x3e, 0xb9, 0x37, 0x2f, 0x3e, 0x00, 0xee, 0x74, 0x3d,
  0xf4, 0x56, 0xbb, 0x3d, 0xc3, 0xea, 0x54, 0x3e, 0x3a, 0x91, 0x33, 0xbd,
  0x2e, 0x2e, 0x36, 0xbe, 0xf7, 0xe5, 0xa2, 0x3d, 0xb2, 0x3d, 0x43, 0xbe,
  0x71, 0xbf, 0x84, 0x3e, 0x36, 0x3c, 0xe8, 0xbd, 0xda, 0xc0, 0x0b, 0xbe,
  0xc5, 0xfe, 0x99, 0x3d, 0xcd, 0xcf, 0xa6, 0x3d, 0x3a, 0x9f, 0xc0, 0x3c,
  0x1b, 0xcf, 0x61, 0x3d, 0x19, 0x16, 0x07, 0xbd, 0x90, 0x9a, 0x73, 0xbc,
  0x2d, 0xdc, 0xc0, 0x3d, 0x8b, 0x2e, 0xe1, 0xbd, 0xd2, 0xed, 0x09, 0xbe,
  0x56, 0xa7, 0x04, 0xbe, 0x9b, 0x22, 0xd3, 0xbd, 0x4c, 0x25, 0x8f, 0x3e,
  0xe0, 0x66, 0xc1, 0xbd, 0x51, 0x85, 0x19, 0xbe, 0xff, 0xd6, 0x16, 0x3e,
  0x2a, 0xe1, 0xa4, 0xbe, 0x34, 0xee, 0x21, 0xbe, 0x1e, 0xfa, 0x5f, 0x3e,
  0xb9, 0xa6, 0x0d, 0x3e, 0xd6, 0x58, 0xc6, 0x3e, 0xc8, 0x2e, 0xd1, 0xbd,
  0x69, 0x9f, 0x55, 0x3e, 0xbe, 0x15, 0xe5, 0x3b, 0xfe, 0xf2, 0x48, 0xbd,
  0xa4, 0x42, 0x34, 0xbc, 0xb0, 0x1a, 0xc2, 0x3d, 0xe8, 0xac, 0x0f, 0xbe,
  0x77, 0x4d, 0x84, 0xbe, 0x72, 0xa9, 0xb3, 0xbd, 0xae, 0x47, 0xfa, 0x3d,
  0x0a, 0xb3, 0xa0, 0xbe, 0x23, 0x93, 0x99, 0x3e, 0x55, 0xdb, 0x1e, 0xbe,
  0x86, 0x00, 0x9f, 0x3d, 0x4f, 0xd2, 0x0a, 0xbd, 0x2e, 0x60, 0xa2, 0xbd,
  0x84, 0xd7, 0x94, 0x3e, 0x17, 0xaf, 0x9f, 0x3e, 0x8c, 0x9e, 0x50, 0x3e,
  0xc1, 0x5b, 0xd8, 0x3e, 0x8c, 0xeb, 0x67, 0x3d, 0x4a, 0xad, 0x10, 0xbd,
  0x04, 0x61, 0x26, 0x3e, 0x03, 0x04, 0x43, 0x3e, 0x79, 0xbf, 0x9d, 0x3e,
  0x75, 0x5d, 0x97, 0x3e, 0x71, 0x37, 0x98, 0x3e, 0x12, 0xfb, 0x9b, 0x3d,
  0x50, 0xd9, 0xc4, 0xbd, 0xe6, 0xf3, 0xc5, 0x3d, 0x19, 0xa8, 0x41, 0x3c,
  0xd6, 0x3e, 0x97, 0xbd, 0x9c, 0x9c, 0xd8, 0xbd, 0x89, 0x7c, 0xd4, 0x3d,
  0x71, 0x90, 0x3e, 0x3e, 0xac, 0x2d, 0x84, 0xba, 0x1c, 0x2e, 0x6a, 0xbe,
  0x41, 0xa1, 0xeb, 0xbc, 0xe6, 0x0c, 0x23, 0x3e, 0x82, 0xe9, 0x28, 0x3e,
  0xeb, 0x79, 0x4b, 0x3e, 0x4a, 0x16, 0x37, 0x3e, 0xcc, 0x83, 0x7b, 0x3d,
  0x6c, 0x20, 0xc4, 0xbc, 0x2e, 0xde, 0x0c, 0xbe, 0xcb, 0xf5, 0x3b, 0x3e,
  0xc9, 0xa2, 0x8c, 0xbd, 0x1b, 0x67, 0xaa, 0x3a, 0x7b, 0x15, 0xc5, 0x3e,
  0xf4, 0x35, 0x2f, 0x3e, 0xca, 0x07, 0xa1, 0x3e, 0x33, 0x9a, 0x8c, 0x3d,
  0xab, 0x14, 0x6f, 0x3d, 0xf7, 0xbe, 0xad, 0xbe, 0x40, 0xee, 0x55, 0xbe,
  0x4e, 0x5b, 0x8f, 0x3e, 0x77, 0x15, 0xa9, 0xbb, 0x78, 0x02, 0x80, 0xbc,
  0xa0, 0xff, 0x50, 0x3e, 0x6a, 0x62, 0xbe, 0x3d, 0xf2, 0x02, 0x3f, 0xbd,
  0xde, 0x6f, 0xd7, 0x3d, 0xe9, 0x0e, 0x32, 0x3e, 0x1b, 0xa0, 0xc4, 0x3b,
  0x82, 0x6a, 0x56, 0xbd, 0xc3, 0x39, 0x22, 0x3e, 0xbb, 0xa4, 0x0c, 0xbe,
  0xc9, 0x4d, 0x13, 0x3e, 0xd3, 0x4d, 0x19, 0x3e, 0x40, 0x2c, 0x28, 0x3e,
  0x21, 0x24, 0xc8, 0x3d, 0x3e, 0x16, 0x60, 0x3e, 0xbb, 0x1c, 0xc2, 0xbd,
  0x9b, 0x04, 0x10, 0xbe, 0xae, 0x76, 0xc7, 0x3d, 0x34, 0x7f, 0x94, 0x3e,
  0x35, 0x84, 0x17, 0xbe, 0x6d, 0x7c, 0x16, 0xbe, 0x97, 0xdd, 0x2c, 0xbe,
  0x4e, 0x9d, 0xb3, 0x3d, 0x37, 0xaa, 0x60, 0x3e, 0xf1, 0x3e, 0x8a, 0xbe,
  0xe7, 0x2f, 0x00, 0xbb, 0xf7, 0x64, 0x79, 0x3d, 0x41, 0x23, 0x89, 0x3e,
  0x40, 0x02, 0x5a, 0x3d, 0x70, 0x86, 0xad, 0xba, 0x40, 0xa6, 0x99, 0x3e,
  0x0e, 0x2b, 0x11, 0x3d, 0x32, 0xef, 0x5e, 0xbe, 0x74, 0x1c, 0x97, 0x3e,
  0x67, 0x6c, 0xb0, 0xbc, 0x24, 0xcf, 0x07, 0x3e, 0xd9, 0xed, 0xcc, 0xbe,
  0xa8, 0xe1, 0xd7, 0x3d, 0x78, 0x04, 0xe1, 0xbd, 0xc9, 0x4a, 0xc2, 0x3d,
  0xe4, 0xba, 0xa8, 0x3e, 0xd9, 0x80, 0xe9, 0xbd, 0xe5, 0x8e, 0x4e, 0xbd,
  0x8f, 0x2b, 0x04, 0xbe, 0x72, 0x49, 0x4c, 0xbe, 0x60, 0xe8, 0x7f, 0xbd,
  0x31, 0x5d, 0xfe, 0xbc, 0x0b, 0xc1, 0xbd, 0x3d, 0xee, 0x1d, 0x1b, 0xbe,
  0xea, 0x2b, 0x67, 0xbe, 0x06, 0xb1, 0x06, 0xbe, 0x42, 0xfa, 0x8e, 0x3e,
  0xe5, 0xae, 0x1a, 0x3d, 0xa0, 0xd8, 0x6c, 0xbe, 0x75, 0x05, 0x47, 0x3e,
  0x1d, 0xd6, 0xa9, 0xbc, 0xc4, 0x2a, 0x68, 0xbe, 0xf3, 0x36, 0x0a, 0xbe,
  0x68, 0x01, 0x86, 0x3d, 0x22, 0x9c, 0x30, 0xbd, 0x0c, 0x1a, 0xa3, 0xbe,
  0x38, 0x96, 0xfc, 0xbd, 0x4d, 0xa5, 0x3b, 0x3e, 0x55, 0xfc, 0x18, 0xbe,
  0xb0, 0xf4, 0x34, 0xbe, 0x5f, 0x3f, 0x8f, 0x3d, 0xf2, 0x1e, 0xc4, 0x3b,
  0x75, 0x61, 0xa9, 0x3e, 0x45, 0x1a, 0xe6, 0xbd, 0x7d, 0x63, 0x70, 0xbe,
  0x10, 0x67, 0x7b, 0x3e, 0x96, 0xf1, 0x30, 0x3d, 0x73, 0x1e, 0x1a, 0x3c,
  0x7f, 0x88, 0x0e, 0xbe, 0xfd, 0x5f, 0x9d, 0x3d, 0x46, 0x2c, 0x49, 0xbe,
  0x8c, 0xb3, 0x20, 0xbe, 0x16, 0x74, 0xdd, 0xbd, 0x60, 0x5c, 0x99, 0x3d,
  0x39, 0xc3, 0xb0, 0xbd, 0x2b, 0x71, 0x60, 0xbe, 0xa9, 0x19, 0x67, 0xbe,
  0xe9, 0xe3, 0x65, 0xbe, 0x42, 0x8b, 0xbc, 0x3e, 0x94, 0x3e, 0xdd, 0xbd,
  0xc5, 0xbd, 0x24, 0xbe, 0x1f, 0xb8, 0x4d, 0x3e, 0x1a, 0x5f, 0xf7, 0xbd,
  0xf5, 0x18, 0x0f, 0xbe, 0x2a, 0xf9, 0xa1, 0x3d, 0x4e, 0x6f, 0xd7, 0x3d,
  0x99, 0x4e, 0xba, 0xbd, 0x9d, 0x1d, 0x9e, 0xbe, 0x90, 0x8b, 0xb9, 0xbe,
  0x89, 0xa9, 0x11, 0xbe, 0x8a, 0xde, 0x23, 0x3d, 0x72, 0x47, 0x23, 0xbd,
  0xff, 0x38, 0xf2, 0xbd, 0xca, 0x5a, 0x20, 0xbe, 0x25, 0xb2, 0x63, 0x3e,
  0x86, 0x88, 0x0a, 0x3e, 0x23, 0xbd, 0x38, 0xbd, 0x63, 0xd8, 0x11, 0x3e,
  0x72, 0x12, 0x8a, 0xbc, 0xc0, 0x9d, 0x63, 0xbe, 0x84, 0xaf, 0xa8, 0x3d,
  0xa2, 0x6a, 0x6b, 0xbe, 0x35, 0xba, 0xad, 0xbd, 0x6a, 0xa5, 0xe2, 0xbc,
  0xb9, 0x51, 0x25, 0xbe, 0xf9, 0x54, 0x3a, 0x3e, 0x2b, 0xa0, 0x0e, 0xbe,
  0x87, 0xa8, 0xa7, 0x3d, 0x5c, 0x0d, 0x11, 0x3e, 0x93, 0xf6, 0xb8, 0xbd,
  0xe2, 0xb0, 0xbb, 0x3e, 0x0b, 0x7a, 0x5e, 0xbe, 0x6a, 0xae, 0x6d, 0x3d,
  0x5d, 0x10, 0x20, 0x3e, 0xb6, 0xa3, 0x41, 0x3e, 0x73, 0x47, 0x31, 0xbe,
  0x7b, 0x3e, 0xc9, 0xbd, 0x7c, 0x66, 0x26, 0xbe, 0xae, 0x10, 0xf0, 0xbd,
  0xcd, 0x2e, 0xb1, 0xbe, 0xaf, 0xf7, 0x66, 0xbe, 0xce, 0x1d, 0x78, 0x3d,
  0x1b, 0x78, 0x5f, 0xbe, 0xfd, 0xa1, 0x40, 0xbe, 0x4c, 0xa4, 0x8f, 0xbd,
  0xd5, 0xe4, 0x74, 0xbe, 0x47, 0x87, 0x8e, 0x3e, 0xbc, 0x8f, 0x39, 0xbe,
  0xf0, 0x22, 0xe4, 0x3c, 0x3b, 0x70, 0x6a, 0x3e, 0x08, 0x93, 0x9c, 0x3d,
  0x34, 0xb5, 0x0d, 0xbd, 0x78, 0x3d, 0x19, 0xbe, 0xb1, 0x1b, 0xdb, 0xbd,
  0xde, 0xae, 0x69, 0x3d, 0x84, 0xd0, 0xb9, 0xbe, 0xdd, 0x26, 0x85, 0xbd,
  0x97, 0xc0, 0xe7, 0x3d, 0x93, 0x8a, 0xa5, 0xbb, 0x48, 0xb2, 0x79, 0xbe,
  0xd5, 0xed, 0x30, 0x3e, 0xaa, 0xb3, 0x76, 0xbe, 0x68, 0x60, 0x93, 0x3e,
  0xd5, 0x89, 0x91, 0x3d, 0x86, 0x9e, 0x4c, 0xbe, 0xe3, 0x0e, 0xcc, 0xbd,
  0x04, 0x12, 0x00, 0xbd, 0x03, 0x98, 0xf0, 0xbd, 0x8b, 0xea, 0x0a, 0xbd,
  0x59, 0xf4, 0xc2, 0xbd, 0xeb, 0x97, 0x3f, 0x3d, 0x0f, 0x23, 0x88, 0xbe,
  0x16, 0xb5, 0x65, 0xbd, 0xce, 0x7f, 0x44, 0xbd, 0xdd, 0xd9, 0x03, 0xbe,
  0x88, 0x72, 0x75, 0xbd, 0x72, 0x54, 0xb2, 0xbd, 0xf5, 0x1d, 0x2a, 0xbe,
  0x8d, 0x6c, 0x09, 0x3e, 0x25, 0x83, 0x72, 0x3d, 0x26, 0x86, 0x25, 0xbd,
  0xf1, 0x38, 0x73, 0xbb, 0xed, 0x0d, 0xeb, 0xbd, 0x4e, 0x42, 0xdf, 0xbd,
  0xb1, 0xfe, 0x0c, 0xbe, 0x35, 0xca, 0x38, 0xbe, 0xf8, 0x06, 0x09, 0xbe,
  0xb5, 0x90, 0x52, 0xbd, 0xdd, 0xef, 0x17, 0xbe, 0x3a, 0x08, 0x64, 0xbe,
  0xa3, 0xf6, 0x3d, 0xbe, 0x6b, 0x7e, 0x24, 0xbd, 0xcd, 0xe5, 0x1a, 0xbe,
  0x0f, 0x9f, 0xc9, 0x3d, 0xd2, 0x61, 0x8a, 0xbc, 0x42, 0xba, 0xd6, 0x3d,
  0x1b, 0x69, 0xdf, 0x3d, 0x2c, 0x23, 0x17, 0xbc, 0x01, 0xd6, 0x95, 0x3d,
  0x6f, 0x2f, 0xef, 0x3d, 0x97, 0x67, 0x28, 0xbe, 0x72, 0xa8, 0x3b, 0xbe,
  0x92, 0xc7, 0x54, 0xbe, 0x82, 0x4e, 0xe7, 0xbd, 0xaa, 0x8d, 0x49, 0xbe,
  0x35, 0x45, 0x34, 0xbe, 0xa3, 0x6c, 0x82, 0x3d, 0xbc, 0xde, 0xf5, 0x3d,
  0xe3, 0xe6, 0xc1, 0xbd, 0x7c, 0x47, 0x98, 0x3d, 0xe2, 0xaf, 0xee, 0xbd,
  0x8c, 0x4c, 0x30, 0x3e, 0x4d, 0x93, 0xdf, 0xbd, 0xcc, 0x2c, 0x91, 0xbd,
  0x2f, 0xfc, 0x35, 0x3d, 0x5e, 0x7d, 0xfc, 0x3c, 0x9c, 0x41, 0xdd, 0x3c,
  0x78, 0x13, 0xc2, 0xbd, 0xab, 0xc1, 0x69, 0xbe, 0xd4, 0xeb, 0xa7, 0x3b,
  0xcd, 0xfa, 0x2f, 0xbe, 0x3a, 0xfc, 0x04, 0xbd, 0x63, 0x02, 0x06, 0x3e,
  0x5d, 0x09, 0xbe, 0xbd, 0x25, 0x37, 0xaa, 0xbb, 0xa7, 0xc7, 0x90, 0x3d,
  0x5c, 0x28, 0x2a, 0x3d, 0x23, 0x1a, 0x05, 0xbb, 0xef, 0x93, 0x20, 0xbd,
  0x9b, 0xd3, 0x67, 0xbd, 0xc4, 0xba, 0xf6, 0x3d, 0x93, 0x60, 0x5e, 0x3e,
  0x9c, 0x9f, 0x24, 0xbe, 0x46, 0xf7, 0x3e, 0x3e, 0x81, 0x68, 0x7a, 0xbe,
  0x92, 0x64, 0x88, 0xbe, 0xc3, 0x5a, 0xe1, 0x3d, 0x21, 0x30, 0xe9, 0x3d,
  0xa1, 0x0e, 0x40, 0xbd, 0xfe, 0x22, 0x87, 0xbb, 0xbc, 0x73, 0x25, 0xbe,
  0x37, 0x54, 0xf7, 0x3a, 0x5b, 0xfa, 0x46, 0xbe, 0x89, 0xe2, 0x25, 0xbc,
  0x47, 0xc7, 0x40, 0xbd, 0x36, 0x3e, 0xe1, 0xbc, 0xa2, 0x82, 0x41, 0xbe,
  0x74, 0x4d, 0x0a, 0xbe, 0x6d, 0x35, 0x6c, 0x3d, 0x66, 0x89, 0xe5, 0xbd,
  0x57, 0x41, 0x05, 0xbe, 0x30, 0x2e, 0x90, 0xbc, 0xee, 0x29, 0x9f, 0xbd,
  0x17, 0x0a, 0x29, 0x3e, 0xe3, 0x6a, 0xe0, 0xbd, 0x93, 0xe7, 0x08, 0x3e,
  0x76, 0xf0, 0xc0, 0x3c, 0x28, 0xbe, 0x20, 0xbe, 0xc1, 0xce, 0x44, 0x3d,
  0x89, 0x0b, 0xf3, 0x3d, 0xd7, 0x80, 0x68, 0x3c, 0x11, 0x9b, 0xea, 0xbd,
  0x11, 0xe7, 0xf1, 0xbd, 0xfe, 0x57, 0x6f, 0xbe, 0x00, 0x41, 0x38, 0xbe,
  0xd3, 0xa0, 0xe0, 0x3d, 0x2c, 0x1d, 0x04, 0xbe, 0x9d, 0x16, 0x46, 0xbe,
  0x93, 0x1a, 0xac, 0xbe, 0xc4, 0xe9, 0x5b, 0xbd, 0xe1, 0x4a, 0xcf, 0xbd,
  0x3c, 0xe9, 0x90, 0xbd, 0x05, 0x01, 0xee, 0xbc, 0x5a, 0x02, 0x3c, 0x3e,
  0x39, 0xdc, 0x38, 0xbe, 0xdf, 0x81, 0x2e, 0x3e, 0x6b, 0xf3, 0x9d, 0x3c,
  0xa4, 0xd1, 0x2a, 0xbe, 0x0c, 0x76, 0x0a, 0xbd, 0x82, 0x46, 0x07, 0xbe,
  0x52, 0x1b, 0x2d, 0x3c, 0x40, 0x00, 0xc1, 0x3d, 0xd5, 0x77, 0x37, 0x3d,
  0x31, 0x80, 0x84, 0xbe, 0xb9, 0xd5, 0x09, 0xbd, 0x3c, 0xb0, 0x6e, 0x3e,
  0x95, 0x85, 0x9e, 0x3d, 0x4e, 0xfe, 0xff, 0xff, 0x10, 0x00, 0x00, 0x00,
  0x05, 0x00, 0x00, 0x00, 0x14, 0x00, 0x00, 0x00, 0x2c, 0x00, 0x00, 0x00,
  0x02, 0x00, 0x00, 0x00, 0x10, 0x00, 0x00, 0x00, 0x70, 0x00, 0x00, 0x00,
  0x17, 0x00, 0x00, 0x00, 0x73, 0x65, 0x71, 0x75, 0x65, 0x6e, 0x74, 0x69,
  0x61, 0x6c, 0x2f, 0x64, 0x65, 0x6e, 0x73, 0x65, 0x2f, 0x4d, 0x61, 0x74,
  0x4d, 0x75, 0x6c, 0x00, 0x3c, 0xfe, 0xff, 0xff, 0x32, 0xff, 0xff, 0xff,
  0x04, 0x00, 0x00, 0x00, 0x08, 0x00, 0x00, 0x00, 0xff, 0xff, 0xff, 0xff,
  0x70, 0x00, 0x00, 0x00, 0x00, 0x00, 0x0e, 0x00, 0x18, 0x00, 0x08, 0x00,
  0x07, 0x00, 0x0c, 0x00, 0x10, 0x00, 0x14, 0x00, 0x0e, 0x00, 0x00, 0x00,
  0x00, 0x00, 0x00, 0x02, 0x10, 0x00, 0x00, 0x00, 0x04, 0x00, 0x00, 0x00,
  0x10, 0x00, 0x00, 0x00, 0x2c, 0x00, 0x00, 0x00, 0x01, 0x00, 0x00, 0x00,
  0x02, 0x00, 0x00, 0x00, 0x18, 0x00, 0x00, 0x00, 0x73, 0x65, 0x71, 0x75,
  0x65, 0x6e, 0x74, 0x69, 0x61, 0x6c, 0x2f, 0x66, 0x6c, 0x61, 0x74, 0x74,
  0x65, 0x6e, 0x2f, 0x43, 0x6f, 0x6e, 0x73, 0x74, 0x00, 0x00, 0x00, 0x00,
  0xa4, 0xfe, 0xff, 0xff, 0x9a, 0xff, 0xff, 0xff, 0x04, 0x00, 0x00, 0x00,
  0x08, 0x00, 0x00, 0x00, 0x8b, 0xa7, 0x50, 0xbf, 0x74, 0xa7, 0x50, 0x3f,
  0x0a, 0xff, 0xff, 0xff, 0x10, 0x00, 0x00, 0x00, 0x03, 0x00, 0x00, 0x00,
  0x10, 0x00, 0x00, 0x00, 0x3c, 0x00, 0x00, 0x00, 0x01, 0x00, 0x00, 0x00,
  0x02, 0x00, 0x00, 0x00, 0x29, 0x00, 0x00, 0x00, 0x73, 0x65, 0x71, 0x75,
  0x65, 0x6e, 0x74, 0x69, 0x61, 0x6c, 0x2f, 0x64, 0x65, 0x6e, 0x73, 0x65,
  0x5f, 0x31, 0x2f, 0x42, 0x69, 0x61, 0x73, 0x41, 0x64, 0x64, 0x2f, 0x52,
  0x65, 0x61, 0x64, 0x56, 0x61, 0x72, 0x69, 0x61, 0x62, 0x6c, 0x65, 0x4f,
  0x70, 0x00, 0x00, 0x00, 0x60, 0xff, 0xff, 0xff, 0x00, 0x00, 0x06, 0x00,
  0x08, 0x00, 0x04, 0x00, 0x06, 0x00, 0x00, 0x00, 0x04, 0x00, 0x00, 0x00,
  0x40, 0x00, 0x00, 0x00, 0x1d, 0xe6, 0x13, 0x3f, 0xc1, 0xf3, 0x61, 0x3f,
  0x34, 0x1c, 0xaf, 0x3f, 0x5c, 0x16, 0x6b, 0xbe, 0xf5, 0xee, 0x4e, 0xbe,
  0x5d, 0xe7, 0x42, 0x3f, 0x28, 0x48, 0xab, 0xbd, 0x28, 0x57, 0x17, 0xbf,
  0x52, 0xe3, 0x05, 0x3f, 0x39, 0x7c, 0xec, 0xbc, 0x27, 0x27, 0x91, 0x3f,
  0x90, 0x68, 0xa2, 0x3f, 0xdf, 0x40, 0x51, 0xbf, 0x28, 0x83, 0x34, 0x3e,
  0x5c, 0xaf, 0xbc, 0x3f, 0x78, 0x31, 0x3c, 0xbe, 0xae, 0xff, 0xff, 0xff,
  0x10, 0x00, 0x00, 0x00, 0x02, 0x00, 0x00, 0x00, 0x10, 0x00, 0x00, 0x00,
  0x3c, 0x00, 0x00, 0x00, 0x01, 0x00, 0x00, 0x00, 0x10, 0x00, 0x00, 0x00,
  0x27, 0x00, 0x00, 0x00, 0x73, 0x65, 0x71, 0x75, 0x65, 0x6e, 0x74, 0x69,
  0x61, 0x6c, 0x2f, 0x64, 0x65, 0x6e, 0x73, 0x65, 0x2f, 0x42, 0x69, 0x61,
  0x73, 0x41, 0x64, 0x64, 0x2f, 0x52, 0x65, 0x61, 0x64, 0x56, 0x61, 0x72,
  0x69, 0x61, 0x62, 0x6c, 0x65, 0x4f, 0x70, 0x00, 0x04, 0x00, 0x06, 0x00,
  0x04, 0x00, 0x00, 0x00, 0x00, 0x00, 0x0e, 0x00, 0x14, 0x00, 0x04, 0x00,
  0x00, 0x00, 0x08, 0x00, 0x0c, 0x00, 0x10, 0x00, 0x0e, 0x00, 0x00, 0x00,
  0x10, 0x00, 0x00, 0x00, 0x01, 0x00, 0x00, 0x00, 0x1c, 0x00, 0x00, 0x00,
  0x2c, 0x00, 0x00, 0x00, 0x04, 0x00, 0x00, 0x00, 0x01, 0x00, 0x00, 0x00,
  0x40, 0x00, 0x00, 0x00, 0x03, 0x00, 0x00, 0x00, 0x01, 0x00, 0x00, 0x00,
  0x0c, 0x00, 0x00, 0x00, 0x63, 0x6f, 0x6e, 0x76, 0x32, 0x64, 0x5f, 0x69,
  0x6e, 0x70, 0x75, 0x74, 0x00, 0x00, 0x00, 0x00, 0xfc, 0xff, 0xff, 0xff,
  0x04, 0x00, 0x04, 0x00, 0x04, 0x00, 0x00, 0x00
};





unsigned int model_tflite_len = 12248;// Fill the int in `src/model.cc` here